node {
  name: "X"
  op: "Const"
  attr {
    key: "dtype"
    value {
      type: DT_FLOAT
    }
  }
  attr {
    key: "value"
    value {
      tensor {
        dtype: DT_FLOAT
        tensor_shape {
          dim {
            size: 20640
          }
          dim {
            size: 9
          }
        }
        tensor_content: "\000\000\200?\244\020\026@\264m{?F\351 ?\241r\035\276\'ty\277\275%K\275\347\271\206?\201\366\251\277\000\000\200?cC\025@\227e\033\277\367q\247>\362\323\206\276B\207\\?\rw\275\275\022\207\205?\363R\251\277\000\000\200?~/\344?[\227\355?_\353\223?a\305H\275w\036R\277\265\263\323\274\250\355\204?\017\232\252\277\000\000\200?\365\326n?[\227\355?\267\273 >\232\035L\275j\032D\277\031&N\275\250\355\204?\235=\253\277\000\000\200?\320\nS\274[\227\355?\357}\260>M\310\006\275P\205B\277QW\257\275\250\355\204?\235=\253\277\000\000\200?9\027\263=[\227\355?\002\032\212\276\261Wp<\322\341d\277\334\211\267\275\250\355\204?\235=\253\277\000\000\200?\005\024\344\275[\227\355?^\275M\276\007\377\234\276K\336\225\276\372\315\271\275>T\204?\235=\253\277\000\000\200?ZO\312\276[\227\355?\303\255\202\276\003\235\226\275\346\304r\276;\341\374\275>T\204?\235=\253\277\000\000\200?s>q\277\210\342\207?\020\333\352\276\234C5=\010vF\276\207\322\315\275>T\204?,\341\253\277\000\000\200?Dy\301\275[\227\355?\336\272=\276_\024f\276\006\002\343=\250\'\261\275>T\204?\235=\253\277\000\000\200?\000\352\263\276[\227\355?\212\365\240<\005\221\023\275\032\017\351\276\010!\237\275\250\355\204?,\341\253\277\000\000\200?\330\277\241\276[\227\355?\266\334\207\276\337\347\033\276=\002\216=\026t\311\275\250\355\204?,\341\253\277\000\000\200?\016p\326\276[\227\355?7\0210\275Z15\276Q\017\224\276\272\335\216\275\250\355\204?,\341\253\277\000\000\200?\001O!\277[\227\355?R\334\023\277\362\342\r;\032At\277_\206\326\275>T\204?,\341\253\277\000\000\200?\310\246\203\277[\227\355?\271P\361\276\000\374;\276\034\tA\276\315\007\334\275\250\355\204?,\341\253\277\000\000\200?\345;k\277\376?\331?\245\215\365\276\247\210U\275=\256$\277\270\310)\275\250\355\204?,\341\253\277\000\000\200?\n\245\023\277[\227\355?\025RS>R\344\320\275\214\372\016\277\006\025\205\275\250\355\204?\272\204\254\277\000\000\200?{\341k\277[\227\355?\224e\016\277\267\032\214\276\365\301/\277\233\312\267\275\250\355\204?\272\204\254\277\000\000\200?\001G}\277\376?\331?\020B\r\275\363\357\271\274\237\343\304\276\000\227\213\275>T\204?,\341\253\277\000\000\200?\037\310*\277[\227\355?\361hq<\256d\341\274WC&\277\354x]\275>T\204?\272\204\254\277\000\000\200?\342N\251\277V\026g?eC\273\276eC\313<O\311e\277\003Po\275\250\355\204?\272\204\254\277\000\000\200?\245W\221\277\210\342\207?\357\305\304\276\322\375J\276\372w\340\276\320\370Q\275\250\355\204?\272\204\254\277\000\000\200?J\221\220\277[\227\355?\022\272\t\276\253\312\227=\010\226\271\276\016\311\272\275>T\204?\272\204\254\277\000\000\200?\341\275c\277[\227\355?E\247\302\275\260\034\001\276>j\001\277I\351/\275>T\204?\272\204\254\277\000\000\200?\3669+\277[\227\355?l\177\203\275\372\026\004\276\271\247\275\276\363l\207\275>T\204?\272\204\254\277\000\000\200?7\252E\277\264m{?\216\036\301\276tC\010\276\203\225z\277~n \275\250\355\204?H(\255\277\000\000\200?\331!>\277O\024\317?Y\017\221\276\273\260#\276\263\0069\277\234aQ\275\250\355\204?H(\255\277\000\000\200?\255\371\212\277[\227\355?\355 \206\276 \211\234\275X@\222\276\333\216\350\274\250\355\204?H(\255\277\000\000\200?\001\"\226\277\376?\331?\030\230\324\276,2\364\275\310#\205\276\301\377\205\275>T\204?H(\255\277\000\000\200?\032\030\223\277[\227\355?\2271\226\27641\013\276\203\363h\277|\371M\275>T\204?H(\255\277\000\000\200?9\356\202\277O\024\317?\251\026\025\276(\2119>\rO\376\276WN\233\275>T\204?H(\255\277\000\000\200?\016\242\200\277[\227\355?\025\\b\276\262yN\274\212\322h\2764{&\275>T\204?H(\255\277\000\000\200?\"\271\213\277\240\350\304?\2276\377=\0345\206>\332\234\264\276\332!I\272>T\204?\272\204\254\277\000\000\200?6&\250\277O\024\317?\013\372$\276\337r\010=\214\313\027\277\352\225\231\275\323\272\203?\272\204\254\277\000\000\200?\013\253\031\277\254k\343?\264#=\276n\321^\275\264p\027\276B\262\216\275\323\272\203?\272\204\254\277\000\000\200?\354\251\240\277O\024\317?\322\025\253\276\354Ev\275\364cA\277\346\300\263\275\323\272\203?\272\204\254\277\000\000\200?\316\335\272\277\240\350\304?!\236\200\276$g\374=\332>\306\27639*\275\323\272\203?\272\204\254\277\000\000\200?X\305\245\277[\227\355?\355\312-\277\231L\213\276\314 \355\276\366\243\244\275\323\272\203?H(\255\277\000\000\200?s\223R\276[\227\355?\334\001\213\276\'.x\2756}&\277\301\320\245\275\323\272\203?,\341\253\277\000\000\200?\324\231,\277[\227\355?\3450H\277v\350\025\276\366V/\275\366_\327\275\323\272\203?,\341\253\277\000\000\200?5\346n\277[\227\355?s0\373\276|6\233\275V\310\330\276\034?\205\275\323\272\203?,\341\253\277\000\000\200?\0353\256\277\254k\343?#\313,\2770\221\244>(_M\277\006\024\304\275\323\272\203?,\341\253\277\000\000\200?#\273\277\277O\024\317?\331f+\277\220\023q\275\033\316Y\277\313\367v\275>T\204?,\341\253\277\000\000\200?E\336I=[\227\355?\306\225\202\276,>%\276\277\254X\277%j\214\275>T\204?,\341\253\277\000\000\200?$H\347\276[\227\355?&\247I\276R\227\210\275\177\013-\277\r\315\237\275\323\272\203?,\341\253\277\000\000\200?\235\340 \277[\227\355?\020a\342\276Q\262\301;\356\356\037\277\346\336\352\275\323\272\203?,\341\253\277\000\000\200?\022\223x\277\376?\331?\200\3252\277&\350\241\275\332\3756\277\215\357\315\275\323\272\203?,\341\253\277\000\000\200?A\350\217\2777\016\222?\320\347\025\277\276\200\223>j\032D\277j\230\252\275i!\203?\272\204\254\277\000\000\200?j\276\304\277V\026g?05\036\277\262\343\203>\033\237b\277h](\275i!\203?,\341\253\277\000\000\200?\3372\215\277V\026g?\\\325\215\277\360i\207\275\240\000$\277\250]\325\275i!\203?\272\204\254\277\000\000\200?*\257\306\277\227e\033\277\024\n\257\277;\345\006\276\035\027\034\277hM\t\276i!\203?\272\204\254\277\000\000\200?\215l\237\2777\016\222?\353\260\255\276\262\377L=\324\311\244\276\357\3476\275i!\203?\272\204\254\277\000\000\200?:\363\271\277\264m{?\371\265\305\276u@>>\3377\361>\342\366\t\275i!\203?\272\204\254\277\000\000\200?`\275\260\277[\227\355?\253\031\014\277{;\273=v?n\276\352\251\202\274i!\203?\272\204\254\277\000\000\200?MT\230\277[\227\355?\331\254(\276\002Y>\276\300\306#\277\036\327\303\273i!\203?H(\255\277\000\000\200?\031\264\245\277[\227\355?=\224\352\276\214\014\210<\271\010@\277\326r2\275i!\203?H(\255\277\000\000\200?\332W\237\277[\227\355?cR\206\276E0\004=\237\2425\277\213\361\203\275i!\203?H(\255\277\000\000\200?X\273\315\277[\227\355?\031^\213>n>\025?7\254\035\277\223R\t\274i!\203?H(\255\277\000\000\200?\272\311\262\277[\227\355?\340P\263\276\251bX=*\351\236\276\334L6=i!\203?H(\255\277\000\000\200?\227G0\277ax\007\300$w\211\277\200\3478\277u\177\226\277\\(\014\276i!\203?\326\313\255\277\000\000\200?\r\303\200\276[\227\355?\223\035j>/\332\210=\347\001E\277v\203*\274\323\272\203?\326\313\255\277\000\000\200?\345o\227?O\024\317?\377W6>5e\261>\362f\227\277w\321\203=i!\203?\326\313\255\277\000\000\200?5\024\310\277\376?\331?\324\250\245>\351\336x?5\005m\277\3614\366:\377\207\202?\326\313\255\277\000\000\200?\351\213\264\277[\227\355?\324\311j?\215\307T?\254wL\277\221\213\242<\377\207\202?do\256\277\000\000\200?\327\017,\277\240\350\304?\337\327\244>\001\314\022?!\241i\277X}B\274\377\207\202?do\256\277\000\000\200?\013/\266\277[\227\355?n\3658\274\234C5=P\2649\277\317I{<\377\207\202?do\256\277\000\000\200?l\203\316\277\240\350\304?4\217\330\276\206k\203\275\350\033\020\277\220y\211\275\377\207\202?do\256\277\000\000\200?\261\365)\277[\227\355?V%!?\366\035\230?\364\005S\277\220\354\331<\224\356\201?\326\313\255\277\000\000\200?\246\t\210\277[\227\355?\252\007 ?\017K\373>\000\'\202\277\363\232\325<\377\207\202?do\256\277\000\000\200?\335\277\302\277C\221\260?\232\316\256\276\326a\270\275\300\272\263>\275G\t\274\377\207\202?\326\313\255\277\000\000\200?Wh\215\277\023\303V\276\352\341\177>SuX>!\241i\277`h\311:\377\207\202?\326\313\255\277\000\000\200?\214\263\323\277C\221\260?\313{T\277G\206S\275~\255>\27751\277\275\377\207\202?\326\313\255\277\000\000\200?\024\342\216\277O\024\317?\203\255L=\304\224\004?\254\246C\277\024\372q=\377\207\202?\326\313\255\277\000\000\200??\034\343\277C\221\260?\361.\300\277m\336\215\277\226\026\237\277)\343D\275\377\207\202?\326\313\255\277\000\000\200?\023\376:\277\365\274/\277\'\274\257>Y\002v>\006X\200\277\233\212\257\275\377\207\202?\326\313\255\277\000\000\200?~\207\306\277\r\303l\277\r\030\207\277\345_\277\275\223\374\025\277\202\235\003\276\377\207\202?H(\255\277\000\000\200?\250\354?\277\341\270\025?\331\372\364=*\313\200<kU+\276\265V}\275\377\207\202?H(\255\277\000\000\200?\r\356\271\277R\024D\277!Y&>6\345&>QA\037\277\241\250\"=\377\207\202?H(\255\277\000\000\200?+\267\316\277\271m\345\276r\346\305\274\310\305\351=\t\364\247\276C\000\210<\377\207\202?\326\313\255\277\000\000\200?\271\212z\277\233g>?\036F\322\276*\267\247=\371zt\277\263\336\247\275\224\356\201?H(\255\277\000\000\200?+\272\237\277\r\303l\277\230\354f\2772\345P\276\364\2228\277\020\371\275\275\377\207\202?H(\255\277\000\000\200?\013/\266\277[\227\355?~\272-\2772\345P\276*p\214\277\001\214\233<\377\207\202?\272\204\254\277\000\000\200?gS\236\277[\227\355?\020`\035\277j\343\035=A\204\212\277\2501\230\275\377\207\202?H(\255\277\000\000\200?\247b\316\277[\227\355?\330\010\230\277\003\334\246\275;\007t\277TS\245\275\377\207\202?H(\255\277\000\000\200?\340\353\212\277\203a\001?\321b\225=\205\336\210\274\277\254X\277\357k\362\274\377\207\202?H(\255\277\000\000\200?\373\016E\277[\227\355?\367\302\005?\026\233\236>5\005m\277\307\300\243<\377\207\202?H(\255\277\000\000\200?\016\367\302\277V\026g?k\020\241\277\032\325B>~\255>\277>\277\027\276\377\207\202?\272\204\254\277\000\000\200?\363\225\321\277M\223\275\277\364\261\217\277?\021\266\275\340\320F\277}\237\013\276\377\207\202?\272\204\254\277\000\000\200?\331I\303\277M\223\275\277\257\225\215\277\210\270*\275r\376\222\277\357\"T<\224\356\201?\272\204\254\277\000\000\200?\030\004\261\277[\227\355?fQ\201\277\357k\301\276\244\271h\277\\\226\034>\224\356\201?\272\204\254\277\000\000\200?1po\2775\215\200\277x\320\212\277\036\227\356\274re\r\277\273\271\251\275\224\356\201?\272\204\254\277\000\000\200?\323c\312\277[\227\355?1y\232\277&si\276\221\305\353\2762\2061?\224\356\201?H(\255\277\000\000\200?oB\322\277[\227\355?\275\313\206\277\343\306\307\276\255\210\213\277\251\037{>\224\356\201?H(\255\277\000\000\200?\307t&\277\235e\005\276\026HH\277\302\'\342=\356\356\037\277,\260\210\275*U\201?\272\204\254\277\000\000\200?\353L\210\277\371\276R?\240\3025\277e:\000?0\030\262\275\270\267\264\274\224\356\201?\272\204\254\277\000\000\200?\321\310z\277\341\270\025?\3120\242\277\367K\203\275\'\373\346?\273\204\033\276\224\356\201?,\341\253\277\000\000\200?|\240\013\2778\020@>\341\273\036\277\014:\207=\206\272\014?\313\241\003\276i!\203?,\341\253\277\000\000\200?\033>{\277k\252\352<\305\3254\277a\006+>bJ\212\277:\311\247\275\377\207\202?,\341\253\277\000\000\200?\224\261\262\277:\016\007\277\376z\200\277\223R.\276\232M\007?\242\033\017\276i!\203?,\341\253\277\000\000\200?2\323)\277>\020*?\271)2\277\334\362\264<\347\202\272>g\254\353\275i!\203?,\341\253\277\000\000\200?4\3439\277k\252\352<\002V0\277\3143\225=\262\231F?w\013\362\275\377\207\202?\235=\253\277\000\000\200?\262\372\257\276\240 P\275\271p \277v\222_\275>\223\200?\002\363\005\276\377\207\202?\235=\253\277\000\000\200?b\366\310\276\371\276R?\254..\277\376m\230\275\276Nj\2774\211\006\276\377\207\202?\235=\253\277\000\000\200?%\375-\277[\227\355?\'\376E\277\345\231\312=B\327\357\276\035\315\036\276\377\207\202?\235=\253\277\000\000\200?\016\316\n\277L\024\332>\222.^\277a\253g\275*\321\216?\267\216\032\276\377\207\202?,\341\253\277\000\000\200?\017\324\016?[\227\355?\201T\234>\267\223\274\276J\341)\277\2329\363\274i!\203?\017\232\252\277\000\000\200?\017(\241\276[\227\355?\231\014\314\276Ob\253\275\307\367!\277\202t\025\276\377\207\202?\017\232\252\277\000\000\200?\306\023\275\276[\227\355?w\262\002\277\303#e\274\324*\'\277Hz\016\276\377\207\202?\235=\253\277\000\000\200?=\360|<[\227\355?\232cp\276w*\333\275(\377\205<\212\355\320\275i!\203?\017\232\252\277\000\000\200?\250\242\231<\240 P\275\2547\003\277\3672\204\275\323\361\252=Q\307\347\275i!\203?\235=\253\277\000\000\200?z\211$?[\227\355?3\033\245=\272#\305=d\351E\277\250\324\260\275i!\203?\235=\253\277\000\000\200?\016r%\277\327\266\210>\223\0330\277\347\326@\275\034\013\254>\365\205\000\276i!\203?\235=\253\277\000\000\200?\003_\344\276\023\303V\2766%a\277W.v\276\272E\222>\355\016!\276i!\203?\235=\253\277\000\000\200?\360\247\302\276[\227\355?\343\031\260\276\225p)\275\212\362\333\276`\275\370\275\323\272\203?\235=\253\277\000\000\200?\277\307V\276\203a\001?\006@&\277O,2\276k\247)\2777\014\021\276\323\272\203?\235=\253\277\000\000\200?g#\304\276[\227\355?\222\360\325\276\323\230n\276V\207I\277\317\246\363\275\323\272\203?\235=\253\277\000\000\200?\024\006C\277\240 P\275\016\347x\277\362:\272\275\220\002\200?\307\351\026\276\323\272\203?\235=\253\277\000\000\200?\332y\322\276[\227\355?~\253\017\277Qh\206\275=\000\243>\357\361\004\276\323\272\203?\235=\253\277\000\000\200?\277\001\206?\376?\331?D\354\007?p\033i\275~\356\315\276ah9\275>T\204?\201\366\251\277\000\000\200?\310\323>?\362\274\272?|<\347>\010\201\255\276Q\017\224\276\037\025\237\275>T\204?\201\366\251\277\000\000\200?}\200\214?\264m{?\233$\023?#\367\021\275\255\300\016\277$\031\275\275\323\272\203?\017\232\252\277\000\000\200?\231^\023?>\020*?\254\217-?\320\331\341=\267\013\226\277\272W\302\275\250\355\204?\017\232\252\277\000\000\200?\200\232\246?[\227\355?m)\035?G\000&\276\324\311\244\276\216\263,\275\250\355\204?\201\366\251\277\000\000\200?e\0220?[\227\355?\224]\300>\017\354\006\276(\257`\276\337Q\273\275>T\204?\017\232\252\277\000\000\200?\010\264\342?[\227\355?N\255.?\267\253\\\276\314 \355\276\363\311r\275\250\355\204?\017\232\252\277\000\000\200?\037\303U?\240 P\275\257\303\'=S\333s\272\264\342\010?@\224\272\275\250\355\204?\363R\251\277\000\000\200?\362\207\364?\376?\331?\257\204\220>.\366k\276#Z\262\276\237\022\265\275>T\204?\363R\251\277\000\000\200?\t\306\220?\3469\234?\036\225\375=2\345P\276\372\017t\275v\364\234\275>T\204?e\257\250\277\000\000\200?A2\370?V\026g?J\345c?\337\320\016\276\254G,>\355\203l\275\323\272\203?e\257\250\277\000\000\200?(\364\223?\206e\335=ey\322>\010\377=\276\027s\003\277\202\224p\275>T\204?\327\013\250\277\000\000\200?\372\210\326?L\024\332>C\010\220>\262\010k\276\027\022\201\276\rI\230\275>T\204?e\257\250\277\000\000\200?\3418\202@\257kX\277\276X\226?\177{\365\2746\301I\277\266\364\376\274>T\204?Ih\247\277\000\000\200?j\274\363?\203a\001?\300\334\326>b\363\373\275\246\320\237\276\270T\200\275>T\204?\327\013\250\277\000\000\200?\211\361\313?L\024\332>\237\336\364>\374\325\022\276\010:6>G\253\272\275\323\272\203?e\257\250\277\000\000\200?\'\003\022@\240 P\275\022` ?\304\220\212\276<\224Y\277X\367y\275\323\272\203?Ih\247\277\000\000\200?[\236\030@\023\303V\276\022zY?I\003\254\275]\270G\277\226\364E\275\323\272\203?\327\013\250\277\000\000\200?\017\376\310?k\252\352<\315T\376>t\324@\276\237\321,\277\001\353q\275\323\272\203?Ih\247\277\000\000\200?\355\311\025@\327\266\210>l1 ?\352\255H\276J\2622\277\037f\201\275i!\203?Ih\247\277\000\000\200?\235\005\324?>\020*?7\312 ?Q\202\023\276\270Lc\277\343\357\206\275i!\203?\327\013\250\277\000\000\200?\322\266\245?\371\276R?\236mZ?9\330w\275K\034\021\276\3449U\275i!\203?\327\013\250\277\000\000\200?8\342\247?\206e\335=\270H\232={\251E\277\202\341\222\277\034e\177\275\377\207\202?\273\304\246\277\000\000\200?\264\212\326?[\227\355?\225a\014?\224\354\234\276\035u\n\277\306u\223\275i!\203?e\257\250\277\000\000\200?\031]\304?\224e\246?}.\036?!,\036\276^\023\242\276\3034_\275\377\207\202?\327\013\250\277\000\000\200?\341\301\003\277\376?\331?\331\244\365\275\312\271\266\272\272\241\025\276\221e\233\275\224\356\201?e\257\250\277\000\000\200?L\304\324\276\233g>?\004\261\245\276\270\202\202;\236\205\326\276!p\334\275\224\356\201?e\257\250\277\000\000\200?=\2148?[\227\355?\335\274\237>}S\242\276B\364N\277\204\213\234\275\377\207\202?e\257\250\277\000\000\200?\342\235\262?[\227\355?\243\316\310>~\314\233\274\365N\025\277\304ug\275\377\207\202?\363R\251\277\000\000\200?\177\267\243\276[\227\355?\364i\215\276\214h9\276E\013\206\276\354\017s\275\224\356\201?\363R\251\277\000\000\200?\216\236\342\276[\227\355?\365\022\313\275\304f\300\275\350\\\237\276~p{\275\224\356\201?\363R\251\277\000\000\200?x$\265>[\227\355?\232\343p\275\365\234\307\275BsY\276\237\306\227\275\224\356\201?\363R\251\277\000\000\200?\177\t\331=[\227\355?\023\332X>&@W\276\316W\027\277\366\013\247\275\377\207\202?\363R\251\277\000\000\200?\006wG?[\227\355?g~\267=-\257\022\276\350\376\260\276&\'\326\275\377\207\202?\363R\251\277\000\000\200?\353r\277\276[\227\355?\024\347\316\276L\224\243\275\310U\020\277\301\263\005\276\224\356\201?\201\366\251\277\000\000\200?\370\226\362>[\227\355?\331`\006?\357S:\275W\3457\277*\267\233\274\377\207\202?\201\366\251\277\000\000\200?\342`\020@[\227\355?\203Ak?\330\227\247\275\222\337\266\276\271^\027\275\377\207\202?\363R\251\277\000\000\200?L\273(@[\227\355?4X\267?\272\270\227=\2116\377\276\360?\322<\377\207\202?\201\366\251\277\000\000\200?zY\311?[\227\355?\274\222`?\007\264\226\276\"\236\325\276\202\212v\274\377\207\202?\017\232\252\277\000\000\200?Q\200\221?[\227\355?p\365!>\304i\264\276)\3542\277\023Mj\275\377\207\202?\017\232\252\277\000\000\200?\356\021\365?[\227\355?\364\267\204?\332\027\001\276\346\206\367\276jLc\275\377\207\202?\201\366\251\277\000\000\200?\314R\027\277[\227\355?\205\275\342\276Z\257\265=(q\345\276\306\270\346\275\377\207\202?\017\232\252\277\000\000\200?\323\341a\277[\227\355?\241\317\022\276\340\251\223\276\006\335p\277]\333\307\275\224\356\201?\017\232\252\277\000\000\200?\217\242\346\276[\227\355?\005y\356\276\367\366\336\275j\231N\276>\245s\275\224\356\201?\235=\253\277\000\000\200?\n\360\322\275[\227\355?\225\024o\276\253\321\211\276\177\252\252\276\216\216\316\275\377\207\202?\017\232\252\277\000\000\200?\013\003\256\276C\221\260?\037 \344\276\026\2406=\301\316=\275\005\021\363\275\377\207\202?\235=\253\277\000\000\200?\241M\374\276\210\342\207?}\276\r\277~\347\314\275r\346\202>L)\010\276\224\356\201?\235=\253\277\000\000\200?h\322h\2777\016\222?\313\364^\277o\245\031:\010rp\275\026W\352\275\224\356\201?\235=\253\277\000\000\200?\241,\230\277\264m{?*5A\277$0\250=\026V\244\276)\343D\275\224\356\201?\235=\253\277\000\000\200?w\361\246\277k\252\352<*cg\277\374\3535=e\240\243\275\277y\004\276\224\356\201?\235=\253\277\000\000\200?.RQ\277\235e\005\276\353\036(\277O\331\330=\024\034f\276g\201\006\275*U\201?\017\232\252\277\000\000\200?\355\014\215\277\224e\246?\335\001 \277\224C\312=\372\0373=\266UV<*U\201?\235=\253\277\000\000\200?\003\016%\277\376?\331?\001\260e\277\250\213\224\276\002\202\032\277\023\001\215=*U\201?\235=\253\277\000\000\200?\025\260c\277[\227\355?\034\0224\277\246\343(\275>|\231\276_\377\370\273*U\201?\235=\253\277\000\000\200?e\013]\277\341\270\025?\256\376q\277\"8\'=\314\200F>\211\364\201\273\224\356\201?\235=\253\277\000\000\200?\004\230\225\2777\016\222?\324\"9\277Y\324F\276\273\243\200>\\\321#\275\224\356\201?\235=\253\277\000\000\200?9\274W\277[\227\355?\252z\333\2762\345P\276\231\376\034\277\260\273U<\224\356\201?\017\232\252\277\000\000\200?&\004g\277[\227\355?\037\250\256\276\r\367;\275r\004\213\276\t\231n<\224\356\201?\017\232\252\277\000\000\200?\324\351i\277[\227\355?\334\301\217\276\241vE>\271\247\275\276\037\201\325\273\224\356\201?\017\232\252\277\000\000\200?\250J\'\277\362\274\272?\236\2343\277\007\221\230\275\237!@\276B\300\255\275\224\356\201?\017\232\252\277\000\000\200?fmH\277[\227\355?\023\252\243\276\360\234p=\333\271\023\277]\245\322\273\224\356\201?\201\366\251\277\000\000\200?G=\366\276[\227\355?!\006\301\276\341\006\325\275\010\362\274\275G`\260<\224\356\201?\017\232\252\277\000\000\200?\234~5\277O\024\317?\274\373\377\276\025E\247<[\207^=\267b\254\275\224\356\201?\017\232\252\277\000\000\200?\004@\202\277[\227\355?|T\374\2762!h\276p\355S\277(J0\275\224\356\201?\201\366\251\277\000\000\200?\210\226\204\277\254k\343?\266\r\016\277\223@\257\275\033m\327\276\205\037\200\275\224\356\201?\201\366\251\277\000\000\200?\317cZ\277\376?\331?3\326\374\276\354\212\001>\313\000z\276f1\356\274\224\356\201?\201\366\251\277\000\000\200?;\"G\277[\227\355?\231)\306\276Q\024y\275\027s\003\277\230\331\261\273\224\356\201?\201\366\251\277\000\000\200?\367>b\2777\016\222?d\034r\276\316\265(\274\312=&@\262\021<=*U\201?\201\366\251\277\000\000\200?\326\372\373\276[\227\355?\216\351\343\276\366\006\225\276\236)S>I\206\274=*U\201?\201\366\251\277\000\000\200?\247\302\205\277\206e\335=X\266(\277\352\255H\276\001e\273\276\311\204\230=*U\201?\201\366\251\277\000\000\200?m\001f\277\371\276R?\206\000+\277x;\303<\213V\013=z\237\210=*U\201?\017\232\252\277\000\000\200?\345;k\277\362\274\272?\314q\272\276\022\230\337>\356m*\276\232\207\307=*U\201?\017\232\252\277\000\000\200?\010\226\205\276[\227\355?\373\240\022\277\3725Z\275\324\373/\277e\352\231=*U\201?\017\232\252\277\000\000\200?\354\322Y\2777\016\222?=\362\264\2766\312\273\275\024\334\377\275\232pO=*U\201?\017\232\252\277\000\000\200?P\232n\277\254k\343?\341\204h\277\337\025*\277\rZ\207\2776\361\323=*U\201?\235=\253\277\000\000\200?U\375\230\277\371\276R?U\360-\2771\373\316\275\270\035l\277\246\307);*U\201?\235=\253\277\000\000\200?\\k\004\276[\227\355?v\230\026\277~i\343\275X\377\002\277\250f\201=*U\201?\235=\253\277\000\000\200?\366\272\222\277\365\274/\277_\206F\277I\255\360=\236)S>\263$s\275\224\356\201?,\341\253\277\000\000\200?\357\320\225\277[\227\355?\344I\206\277\304\274\266\276\213\261L\277\260\210\211=U\"\200?\363R\251\277\000\000\200?\356\222,\277[\227\355?\204\005\327\276\014\201\r>\322\363\374\276NP\327<U\"\200?\363R\251\277\000\000\200?\335D/\277[\227\355?_\341\375\276\202\270z=W\3457\277\035\320\327<U\"\200?\201\366\251\277\000\000\200?\016r%\277[\227\355?\233#.\277\226\026\006>\024nd\277c\344\257<\300\273\200?\201\366\251\277\000\000\200?n\271\343\276[\227\355?\271\000\017\277,\233<\276\245\024\303\276S\\\035>\300\273\200?\201\366\251\277\000\000\200?\315~\240\277\376?\331?\360A\021\277\236\213\371<\262\374\263=\233jG<\300\273\200?\363R\251\277\000\000\200?\325\177\202\2777\016\222?\200Jb\277\'\246$\2750\240\221=\002\004\021=\300\273\200?\201\366\251\277\000\000\200?>\307\240\277[\227\355?%\250!\277cy7\276=\300\274\276\345\372\255=\300\273\200?\201\366\251\277\000\000\200?\317\355\230\277\3469\234?hXo\277\273\236\200;7\325\234?\266\033\205=\300\273\200?\201\366\251\277\000\000\200?\\\006w\277\240\350\304?\304{H\2763\372\371=\252\323H=\241\354\365=*U\201?\201\366\251\277\000\000\200?s\230T\277O\024\317?\006\355\322\274\354\240d\276\003\017\000\277\331\363\247=*U\201?\201\366\251\277\000\000\200?-\362g\277>\020*?\217g\304\276\340\032\350:\307\013%>\213\235\3059*U\201?\363R\251\277\000\000\200?\321\247\227\277\206e\335=\'\320\335\276Y\271\003\276\\+b\277{{\\\273*U\201?\201\366\251\277\000\000\200?)O\253\277V\026g?%\020\033\276F\371\002\275/\277B\277\256@\t\272*U\201?\201\366\251\277\000\000\200?\036c?\276\3469\234?U\017{<\236\203\371=/\000\322\276e`6=*U\201?\363R\251\277\000\000\200?\320*\223<[\227\355?;)2\276\201\037A\276\254\227??7K\303<*U\201?\363R\251\277\000\000\200?s\225\322\276[\227\355?ni\035\277q&\204\276\315\233:\277\3054\036:*U\201?e\257\250\277\000\000\200?\023\251*\277C\221\260?\333h\302\276rbA\274\306OH>\3475\254;*U\201?\363R\251\277\000\000\200?\242\2638\277O\024\317?\225E\350\276\214\311\230\275w\373J\276\363\317\273\274*U\201?\363R\251\277\000\000\200?\220\261\020\277\233g>?Y\007\246\276\324\221\031\275C\241\'?\026\257\253<*U\201?\363R\251\277\000\000\200?G\363\013\277k\252\352<r\230z\276\274(\237<\212\362\333\276\263\244\363\274*U\201?\327\013\250\277\000\000\200?\226\343\365\276\362\274\272?\"\245o\275~\312\303\275\003\017\000\277\345MK\274*U\201?e\257\250\277\000\000\200?~[\013\277L\024\332>\331g\257\276\006\321\024\275\347\204\245=c<N\274*U\201?e\257\250\277\000\000\200?^+\006\277\203a\001?\374\365\273\276QI\240\275\270m\177\276\274\303,\274*U\201?e\257\250\277\000\000\200?6E\330\276\371\276R?\335(\346\276@\375$\275$\026\217\276\3703\206\275\224\356\201?e\257\250\277\000\000\200?\302?\326\276\371\276R?X%\273\276\353\014L\276\271\3458\2762S\003\275\224\356\201?e\257\250\277\000\000\200?\323<\022?7\016\222?]\267\002?\213\036y8\255_\214\276j\217t\275\224\356\201?\327\013\250\277\000\000\200?\251\360\362>[\227\355?\236\037\016>\366\202\352\273e\245\"\277\244\024,\275\224\356\201?\327\013\250\277\000\000\200?\272IO\276[\227\355?h\0018\276\233\227A\276]\333\316>\004$\037\275\224\356\201?e\257\250\277\000\000\200?\212\"(?\264m{?\220l\210>\272\327\357\275\366}\014\27735\213\275\224\356\201?\327\013\250\277\000\000\200?\004\276\364=\240\350\304?\217\275\232\275P&\345\275\277\333O\277\\\217\321\275\224\356\201?e\257\250\277\000\000\200?\362]\353>\240\350\304?\013\272.?\374\344\221\274\025Y8\277\2253H\275\224\356\201?Ih\247\277\000\000\200?\264\262X>C\221\260?\224\002)>\313Q\026\276X\241\024\277\232Z\225\275\224\356\201?Ih\247\277\000\000\200?\333\332\356\276\376?\331?`,\213\275=o\237\275\033\316Y\277Y\305\\\275*U\201?Ih\247\277\000\000\200?\233q#>V\026g?_\014\276\276\216\330|\274dv+\277\275F\267\274*U\201?\327\013\250\277\000\000\200?W{=\274C\221\260?8\327\001\276\362f0\276Q\261\245\276\341D$\275\224\356\201?\327\013\250\277\000\000\200?~\265\227=[\227\355?s\371\346>\026\263\177\276\214>2\277\333\t\230\275\224\356\201?Ih\247\277\000\000\200?9\273\323>\224e\246?\345\333f>w,_\276_q\220\276\351?z\275*U\201?Ih\247\277\000\000\200?\314\230\375\276\240 P\275>\364\226\276U\202\260=\316\330\214>\267\010;\275*U\201?Ih\247\277\000\000\200?\311*S\277\203a\001?\202O\247\276@f->~L\274\276\350\254>\275*U\201?\327\013\250\277\000\000\200?\010=\"\277O\024\317?+U\376\276s\236\265\276^\243\033\277E\025-=*U\201?\327\013\250\277\000\000\200?\206\252(\277\3469\234?\243$\\\277mC\276\276\343C\201\275\027\346\366\274*U\201?\327\013\250\277\000\000\200?5\355C\277\224e\246?\302\033\310\276\037Bp=\221\007\275=]\372w<*U\201?e\257\250\277\000\000\200?\363!\023\277\224e\246?R-\374\276\374\345\345;\251\352_\274\264\016R\274*U\201?\327\013\250\277\000\000\200?\002\002\031\277C\221\260?\311\226\032\277\274E\334\276\242Q\000\275\204\225w\275\300\273\200?e\257\250\277\000\000\200?\212U\210\277[\227\355?\325P\314<<y =\333\372\242\27622\257=\300\273\200?e\257\250\277\000\000\200?\316^#\277[\227\355?\331\206\347\276\237\r\305\276l4\017\277\330\216\177<\300\273\200?e\257\250\277\000\000\200?\2034\334\276O\024\317?\354}6\277\002\267Y\276\301$\022\277\022\332+<\300\273\200?e\257\250\277\000\000\200?\222qG\277\3469\234?\2461i\276fU\021>/\260>?^\366\177=\300\273\200?\363R\251\277\000\000\200?;\374\220\2777\016\222?2\014\001\277\331\370\220=\315x3\276\013i\260\273\300\273\200?e\257\250\277\000\000\200?\213\333\'\277\362\274\272?\373~7\2773\"\022\276k\005\030\277d\323\251;\300\273\200?e\257\250\277\000\000\200?\340\022\020\277V\026g?\030\0367\277:A\010\277\001\227F\277\010|\301=U\"\200?\363R\251\277\000\000\200?qd\220\277\376?\331?\031\031\020\277\243W;\275\332~\254>\314R\314=\300\273\200?\363R\251\277\000\000\200?\314Hq\277\3469\234?\030\375R\277K\351\373\275\226<x>\337n\017=\300\273\200?\363R\251\277\000\000\200?\031/:\277\254k\343?>\277\002\277\267\372/>;\212\324=h\265\250=\300\273\200?\363R\251\277\000\000\200?\275\222\216\277[\227\355?\223\366\217\276\305\035\330\275\374\357\231\276\256VW=\326\021\177?e\257\250\277\000\000\200?i\337\354=[\227\355?\266\304\346\276\335s\263>!rr\277\304\324B\275U\"\200?e\257\250\277\000\000\200?\367\352 \277[\227\355?\215\2161\276)\343\026\276\204QW\277a\320#<U\"\200?e\257\250\277\000\000\200?P\237A\277O\024\317?\026\014\226\2762\312\r\276\034\3150>\375\'\341<U\"\200?\327\013\250\277\000\000\200?\006}O\277C\221\260?\314\016I\277\311l\241\275<B[\276\203\340\325<U\"\200?e\257\250\277\000\000\200?\013\375X\2777\016\222?a\3325\277\332\360<>\020B\005\277\277\370\245\273U\"\200?e\257\250\277\000\000\200?e@\213\277\210\342\207?i\022C\277ak\215\276\212\224\355\276\006\226\n=U\"\200?Ih\247\277\000\000\200?\356\215Y\277\371\276R?Qy.\276F#\002=\024\036\321>\323\221/=U\"\200?\327\013\250\277\000\000\200?E\201t\277\264m{?\371\251\270\276\035\002\202>W\204\265\276\213\253\325\273U\"\200?\327\013\250\277\000\000\200?\326W2\276[\227\355?0?];\302u\325\275\307G5\276\017\307\211\274\300\273\200?\327\013\250\277\000\000\200?\0073\313\276\371\276R? :\237\276\030p\231\275eD\240\276\002N\257\274\300\273\200?\327\013\250\277\000\000\200?PL3\277\376?\331?\211\275J\276\223\370\203\275\003\177\206\276f\200\010\274\300\273\200?\327\013\250\277\000\000\200?\362\021\003\2777\016\222?h\001)\276\375\210\000\276c\260\311=\373\225%<U\"\200?\327\013\250\277\000\000\200?\304\367Q\277\3469\234?\250\014\325\276\246\335\272\275x\267\'\276\002f\005<\300\273\200?e\257\250\277\000\000\200?^+\006\277[\227\355?<V\214>\3725Z\275\0019X\277\277\016\334\274\300\273\200?Ih\247\277\000\000\200?\202\207\206\276[\227\355?\321\273\005\276\203\244A\276>|\231\276\"@K\275U\"\200?Ih\247\277\000\000\200?\251\246A\276[\227\355?\341=\201=59\177\275;\206~\276\366\017\001\275U\"\200?Ih\247\277\000\000\200?\224&n>[\227\355?&\266\373>\221\267\254<$\026\217\276\004\3052\274\300\273\200?Ih\247\277\000\000\200?\003\\\257\276[\227\355?\360aZ>\322\2723\275\025\232\307\276\257S\037\275\300\273\200?Ih\247\277\000\000\200?\rV\025;\221e\261>j!y\277\023\037l\277\230B@\277f\336a?\300\273\200?\273\304\246\277\000\000\200?\366\2147?O\024\317?\372s\277=\021@z\276w\036R\277\035\210\211\275\300\273\200?Ih\247\277\000\000\200?0\276\233\275[\227\355?s\260\247=\010\307.\276\010\310D\277\371\000l\274\300\273\200?Ih\247\277\000\000\200?\252\254\301>\224e\246?\261\375;\274\t\333/\276\227\230\373\276\362\361\"\275\300\273\200?\327\013\250\277\000\000\200?a\353:?\371\276R?K$\">\177\220\330\276\220r\206\277Jz\246\275*U\201?\273\304\246\277\000\000\200?\000\275\330?\264m{?\356\371\360>(d\210\274\"\2734\277yhe\274*U\201?\273\304\246\277\000\000\200?\264\276X=C\221\260?\206\024\313>\014\t,>.\242\343\276\t\221\323\274*U\201?\273\304\246\277\000\000\200?\244\277\367\276\362\274\272?\\\001\202\276\306O\237\276~\255>\277\2124\235\275*U\201?Ih\247\277\000\000\200?\010=\"\277\376?\331?KI\215\276\005\221\023\275\340\320F\277\255\264\013\275*U\201?Ih\247\277\000\000\200?]\027T?>\020*?\300\272\232>scq\276]\0266\277q\343\221\275\377\207\202?\273\304\246\277\000\000\200?\200\226\242?L\024\332>U?\035?2\345P\276\212S^\277W\212\236\275\224\356\201?\273\304\246\277\000\000\200?@.\302?\271m\345\276\246-)?e1\034\276\245\266\324\276T\360z\274\224\356\201?\273\304\246\277\000\000\200?\332\243\327?\377\276\274\276\370\214_?E\224\177\276\244X\346\276\250\017\300\274U\"\200?\364\222\243\277\000\000\200?\367r\216?:\016\007\277~\224\343>k\324\357\275\372*I@\035\206S\275*U\201?\236}\245\277\000\000\200?^v\305\275\210\342\207?9\326\346=\317\305\204\276W\024/\277\005ny\275\300\273\200?,!\246\277\000\000\200?^+\006\277\206e\335= j\220\276Ht\231\275\211\332{>A\022\177\275U\"\200?,!\246\277\000\000\200?\252\245r\2767\016\222?\033gd\276M\310\006\275\374\357\231\276_\246\037\275\300\273\200?\273\304\246\277\000\000\200?\355:\232\276\376?\331?7\371\021>^s\240=J\020!\277B\344\\\275\300\273\200?\273\304\246\277\000\000\200?\rV\025;O\024\317?-\377L\276\350R\200\276\340rX\277\316H?\275\300\273\200?,!\246\277\000\000\200?d\t$>[\227\355?\307\356U\274\367\307\247\275\322T\177\277_>v\275\300\273\200?,!\246\277\000\000\200?`\353\207>\362\274\272?\223\232\t>\245\316Z\276\364cA\277\177\3243\275U\"\200?\236}\245\277\000\000\200?\370\226\362>\240\350\304?\021y\001\272_U#\275\016l]\277`\322i\275U\"\200?\236}\245\277\000\000\200?|\366\037\276\224e\246?T\361\200>L\276\007\276\372\325\316\276a\327X\275U\"\200?\236}\245\277\000\000\200?\376\324\320\276\371\276R?\247\240-\276N\017\206<\301\202\000\277)p\r\275U\"\200?\236}\245\277\000\000\200?\360\365\177\276\371\276R?s\374.\276d^\225\275\236\'\350\276<\002\274\274U\"\200?,!\246\277\000\000\200?\010\273\206\2778\020@>g\026\333\274\271S2>\025\324l\275a\000\303\273U\"\200?,!\246\277\000\000\200?\311`\202\277\264m{?EJ\302\276\263\332\007\276*\351\236\276D\357\216\273\326\021\177?,!\246\277\000\000\200?\261Ac\277\362\274\272?N8?=\300+\006\27551\320\276\304\273V\275\326\021\177?,!\246\277\000\000\200?L\305T\277>\020*?D\344Q\276\t\314>=\000\251\336\276\354\220t\274\326\021\177?\273\304\246\277\000\000\200?\220\260A\277\233g>?e\2228\276\025LV=\332>\306\276\302\327\336\274\326\021\177?,!\246\277\000\000\200?\242\214\201\277\376?\331?\030\347y\276dG\232\275Uj\352\276\343\022s=\326\021\177?\273\304\246\277\000\000\200?\250\242\231<[\227\355?\231\323\261\276;\340\233\275.2]\277m\230\016\275\326\021\177?\273\304\246\277\000\000\200?\250\305\210\277O\024\317?\034\353\000\276\253\032L\276w\273\344\275P,\226\274\326\021\177?\273\304\246\277\000\000\200?\213|q\277\235e\005\276pU\025>\231\230[?\244\271h\277\002DX\275U\"\200?\273\304\246\277\000\000\200?i\227\016\277\210\342\207?\216S\324\276\327\312\224\276\244\372\367\276\351\036\237<U\"\200?\273\304\246\277\000\000\200?\343\\\205\2777\016\222?\260\223\346<\230\001\002=\247.\216\276\376\363\210\273\326\021\177?\273\304\246\277\000\000\200?\350\337\221\277O\024\317?:+\016\276\277\360\320\275*\250\017\2773(S\274\326\021\177?Ih\247\277\000\000\200?L\307V\277[\227\355?(\373D\276\2422l\276\305\227A=\362#\036\275U\"\200?\273\304\246\277\000\000\200?q\337\245\276\254k\343?\273\374\177\276\341a8\275\033Md\276%\323\032\275U\"\200?\273\304\246\277\000\000\200?\370\225t\277[\227\355?\206$\207\276\264\202h\276\237A\263\276\335n\314\274U\"\200?\273\304\246\277\000\000\200?\370K=\277[\227\355?\336t\022>\374\3470=\341\315\262\2769\233I\274\326\021\177?Ih\247\277\000\000\200?\024\342\216\277\362\274\272?R\334\023\277B\345\265\276\310\204\007\277{\250-\274\326\021\177?\327\013\250\277\000\000\200?\027\302u\277\264m{?\312p\303\276\335\211f=\023\373B\274#\033y;U\"\200?Ih\247\277\000\000\200?\313\233\033\277\224e\246?u\247J\275\241\032~=\n\260\204\276e`\210<U\"\200?Ih\247\277\000\000\200?\203a\263\277\264m{?\223m\026>\325\265\335>\314=L\277\211\201\247<\326\021\177?Ih\247\277\000\000\200?\236\027\203\277\224e\246?\225\256\376\276,\307G\276\246\3233\277\260\247\"\275\326\021\177?Ih\247\277\000\000\200?\307F\232\277\341\270\025?\204\224\264\276S$a\276\3644J\277\355\306\265=\001\337}?\327\013\250\277\000\000\200?\262\317\245\277>\020*?\303\377\021\277`*j<\227\330\341>\374\232\221\274\326\021\177?\327\013\250\277\000\000\200?\312\006\321\277\233g>?\242?\363\276\266\333\267\275;\206~\276\341\303\224<\326\021\177?Ih\247\277\000\000\200?8\345\253\277R\024D\277\360-\365\276\3779\257\274\252\323H=\033\220\257\274\001\337}?Ih\247\277\000\000\200?Q\317\316\277\240 P\275\220\"p\275\307<\027>\244\350_\277\002\006\030\275\001\337}?Ih\247\277\000\000\200?\242\214\201\277\023\303V\276`f\360\276\360\256{\276\025\232\307\276c\202\213<\326\021\177?Ih\247\277\000\000\200?\003\206\265\277\341\270\025?\303\312(\275`\257\377>\222\021B\277\017_C=,\254|?Ih\247\277\000\000\200?\354\201M\277\210\342\207?\326G\325\276\n\331\247>\227Wl\277\243\364\354:,\254|?\273\304\246\277\000\000\200?dZg\277\3469\234?\317c\333\276\2351\001\276\247\276\007\277+\350\364<Xy{?Ih\247\277\000\000\200?!\3246\2777\016\222?\366\220\263\276\3135\240\276V\372c\277S\377\025\275,\254|?Ih\247\277\000\000\200?\247\272\257\277\224e\246?(\303-\275\231\3072\276\223+\r\277R\241\334\274Xy{?Ih\247\277\000\000\200?\237\363\001\277\210\342\207?\326o\255\276\250\372\272\274\26350\277\303k\227<Xy{?\273\304\246\277\000\000\200?L\0356\2777\016\222?\304\356b\276\313=\024\276\200\366\000\277*\354\336\273Xy{?\273\304\246\277\000\000\200?f\033m\277\3469\234?>\321\020\277W\177\357\276\244\350_\277\003\272I<Xy{?\273\304\246\277\000\000\200?\374\303>\277\210\342\207?\376t\252\275\215\010N=&!\224?\\\\,=Xy{?\273\304\246\277\000\000\200?\266\314E\277\264m{?\220\233\036\277\335b<\275\252\323H=\226\317G=,\254|?,!\246\277\000\000\200?z\335g\277\362\274\272?\350\016T\277#\033\200\276\313Rx\277\304\326\206\275,\254|?,!\246\277\000\000\200?\\\270;\2777\016\222?l\314\261\276\362\223\037\2755\222R\277)6\365\274,\254|?,!\246\277\000\000\200?[\261f\2777\016\222?\207\222\345\276\r^\226\274\333\332/\276\243\262T=Xy{?,!\246\277\000\000\200?/\220\210\277\203a\001?\213\236\246\276\020\034\000>H:y\277DZ)\274,\254|?\273\304\246\277\000\000\200?\216\236\342\276C\221\260?Q\325\263\276\261JG\276\350\354\030\277\327\257\313<,\254|?,!\246\277\000\000\200?\317cZ\277C\221\260?\373s\345\276\3432\024\276\272\225%\277\t6\242=,\254|?,!\246\277\000\000\200?\246\325Z\277C\221\260?\273\306S>\347\232\207<\200d\234\275\032^\214=,\254|?\273\304\246\277\000\000\200?\216\372\275=\224e\246?<\355\006\277\262w\236\276\203?\201\277\311/3=\001\337}?\273\304\246\277\000\000\200?\241\204\253\277C\221\260?\266\270y\276\023\3377=~\3345\277\325\3063<\001\337}?\273\304\246\277\000\000\200?D\253\227\277\233g>?Tp%\277_\'(\275\272\304\034\277\210\306\300\274\001\337}?,!\246\277\000\000\200?\233\300d\277\224e\246?L\302\'\277\245\225H\276\314 \355\276\336\254\033=\001\337}?\273\304\246\277\000\000\200?\310\246\203\277\341\270\025?\251\372V?\362\\\261?\253HU\277\223\024a<\001\337}?Ih\247\277\000\000\200?\266\307r\2777\016\222?P\350i\276\305\035\300\273x\332.\277k\337r\272\001\337}?\273\304\246\277\000\000\200?\204q\221\277\341\270\025?E\276\265>\346\364\317>W\024/\277\"\321\247=\001\337}?\273\304\246\277\000\000\200?\227G0\277\221e\261>\234P\305\276\026\361H\275\356\321\300\276\261\221&=\326\021\177?,!\246\277\000\000\200?z}~\2777\016\222?\306\353\310\275\030\022\334\275Uj\352\276\221+(\274\001\337}?,!\246\277\000\000\200?L\0378\277\264m{?\347\326o<EJ0>\t\021\007\277\371\303P=\001\337}?,!\246\277\000\000\200?\236\335O\277\3469\234?\t%\203\276\010\370\201\276\264\302\025\277?\200\322\273\001\337}?,!\246\277\000\000\200?1\360\243\277\240\350\304?\373p*\276\253\3163=\204\301\335\276\027n\032\275\001\337}?,!\246\277\000\000\200?\306\0167\277\224e\246?\236\203\214\276]\354\225\275\302\267&<\030Z \274\326\021\177?\236}\245\277\000\000\200?%\204\233\277\233g>?\3362\t\276\013\330\325>\356\265\243=\246H\353;\001\337}?\236}\245\277\000\000\200?N\341\277\276\362\274\272?6\326c\274\177\221\275=jI;\277\305\256v<\001\337}?,!\246\277\000\000\200?\342\244\210\277V\026g?\310\317O\276\302\223J\276\033m\327\276\257Q\351\274\326\021\177?,!\246\277\000\000\200?\326P\327>C\221\260?jq\200>\333\036-\276\253+\366\276_\rr\274\326\021\177?\236}\245\277\000\000\200?f\036>\277\341\270\025?\261\322\351\274\375\271\240<\215/5<\325\225\354\274\326\021\177?\236}\245\277\000\000\200?Q\203\224?\371\276R?\234\340\010?<\262\241\275\264\302\025\277\362\010\301\274\326\021\177?\020\332\244\277\000\000\200?}S\001?\235e\005\276\017\340\257>\036\007\024\276jY\350\275\231\337e=U\"\200?\2026\244\277\000\000\200?\263\000e?L\024\332> 54?`\223\202\273\277\nG\277\031Y@\275\326\021\177?\2026\244\277\000\000\200?\351\tJ?\023\303V\276\356\220\220>\014\225\275\276=\3767\276\002i\231\275\326\021\177?\364\222\243\277\000\000\200?\000i\311?\221e\261>]z\222?\005\201M>y\226\013\277\342\017t=\001\337}?f\357\242\277\000\000\200?g\276\000@\240 P\2755\373??g?)\276\r\337w\277\374\007\245\273\001\337}?f\357\242\277\000\000\200?^)\255=\341\270\025?3\203\272>e\030\220\2764\247~\277\327,\001\275\001\337}?\2026\244\277\000\000\200?8\213\307?\221e\261>R&\363>\021Jf\276\034[?\277\003)\241\274\001\337}?\2026\244\277\000\000\200?\266\317\024?\206e\335=\237\177\223?\\ \020\2757\243\221\277\304g\002\275\001\337}?\364\222\243\277\000\000\200?\327\267H?\341\270\025?\032]\222?2\345P\276\035=\207\277n\346o\275\001\337}?\364\222\243\277\000\000\200?!.\030?\264m{?`\326\014?\211\337\024\276\355\2756=pY\234\275,\254|?\364\222\243\277\000\000\200?\021\335\376\276C\221\260?[z\236>\306Z\335\275\340Ca\277\256\300\340\274\001\337}?\236}\245\277\000\000\200?y\3501<V\026g?\337\273\304=\355kH\276\273Q\002\277l\031\314<\001\337}?\020\332\244\277\000\000\200?\013\003\256\276\3469\234?$O0>\267\003k>V\310\330\276+\273\247\274\001\337}?\020\332\244\277\000\000\200?R[\303\276\264m{?\300\n\304\276\214\373\261\276\025*A\277\302\365\377\273,\254|?\020\332\244\277\000\000\200?A\2673\277\377\276\274\276\335\325\243\276[\303+>Rm\202\2762IE\274\001\337}?\236}\245\277\000\000\200?8\0141\277\3469\234?\354\257\261\276\236u\210\276U\313l\277\t|\325\274\001\337}?\236}\245\277\000\000\200?lRC\2767\016\222?%\217\016\276 \0209\276>j\001\277\307B\316;,\254|?\020\332\244\277\000\000\200?\037n\226\276O\024\317?\242\'\227\276\0215w\276\325\210\025\277h\213\016\275,\254|?\020\332\244\277\000\000\200?S\356\211\277V\026g?\230\237\226\276\036\236\200=\270\353\340\276\300<?=\001\337}?\236}\245\277\000\000\200?\204<\016\275\203a\001?@U+\276\237V\276\275\355vf\277\224v\343\272\001\337}?\236}\245\277\000\000\200?L\305T\277L\024\332>\212\230\333\276\235-I\276\206\370\007\2779\233I\274,\254|?,!\246\277\000\000\200?\27069\277>\020*?lK-\275e\242\305<\357{\005\277\\\317q<\001\337}?,!\246\277\000\000\200?~_\270=7\016\222?6\217\275\275\212E,\276\310\204\007\277\t|\325\274,\254|?\236}\245\277\000\000\200?N4P\276C\221\260?\226\216d\276\205\007\001\277\222\021B\2774:\027\275,\254|?\236}\245\277\000\000\200?-L\024>[\227\355?Y\307\367\274\363\340#\276b\376q\277h\300n\275,\254|?\236}\245\277\000\000\200?\213\333\'\277\362\274\272?>\204@\276\'D\005?6\301I\277\001\']<,\254|?\236}\245\277\000\000\200?\351\004y\277\3469\234?\2544\007\276M=\001=\364\2228\277\274\315\273\274,\254|?\236}\245\277\000\000\200?\017\323\220\276O\024\317?\300\031E;^\225>\276\271\010@\277\021tx\275\274\354\207?\326\313\255\277\000\000\200?\004\272E?[\227\355?\326~\224=3U\277\276\010\367;\277\325\364\303\275\274\354\207?\326\313\255\277\000\000\200?\302=V\276[\227\355?\205\365\\>E\031D=\330$\373\276Ps\226\275QS\207?\326\313\255\277\000\000\200?\340\016A\276\233g>?2n\313\276>\265\031\276\034)\264\276i\243\317\275\274\354\207?do\256\277\000\000\200?\367\227\305\276[\227\355?iv|\2764\311a\275\272\225%\277#S\272\275QS\207?\326\313\255\277\000\000\200?o\312\017\277C\221\260?\227W\016\277\232EU\275_\001\n\277\354\361\260\275QS\207?do\256\277\000\000\200?\234\320\277>\344\270\212\277\326\234\315\2760\347\250\275\322\322`?\234\031\275\275\274\354\207?do\256\277\000\000\200?\177\013\345\276\341\270\025?\233\373\035\277\006\233\227\275I%M\277\265j\353\275QS\207?do\256\277\000\000\200?\026\277\351=[\227\355?0Y\270\276(\t\022\276]\0266\277<\356\240\275QS\207?do\256\277\000\000\200?\223\324\260>\210\342\207?\244\342\036\276\250\003\272\273\204\257E\2773\n\305\275QS\207?\016Z\260\277\000\000\200?\257\271\217\277>\020*? \370Z\2779\335B\276b\221\177?H\036\360\274\347\271\206?\234\375\260\277\000\000\200?>F\272\276[\227\355?f\247\264\276\245\257J\276e(\203=\305\027\265\275QS\207?\326\313\255\277\000\000\200?\360y\357\272\376?\331?\343\362\033\275\023\177\345=\355\003L\277|/\227\275\347\271\206?\326\313\255\277\000\000\200?T\300.?[\227\355?\311\253\310>g\235\313=\322\262m\277\313\367v\275QS\207?\326\313\255\277\000\000\200?\305\010/?[\227\355?S&\216>!z\034\2766\217\276\276[\274\017\275QS\207?\326\313\255\277\000\000\200?s\233R>[\227\355?\260=\030=\216\325]\276yg\024\277\270~\227\275\347\271\206?H(\255\277\000\000\200?\346\232\037?[\227\355?\037\324\347\275\241\034[\276\314~\333\276\363M\247\275QS\207?\326\313\255\277\000\000\200?\255\032l?\210\342\207?\223Q\322>u\333c\275\222o0\277\327ZY\275\274\354\207?\272\204\254\277\000\000\200?[H\007@[\227\355?\375\223\002?\3115\212\276D\337\"\277:\231u\275\274\354\207?,\341\253\277\000\000\200?&\235\t@[\227\355?d\177\\?5\234`\276\222\236\'\277\276\023f\275\274\354\207?\272\204\254\277\000\000\200?\2410\233?[\227\355?\377\301d?\212E,\2766\360@\277K#\177\275\274\354\207?\272\204\254\277\000\000\200?\004\345\316?[\227\355?$}\210?W\320~\275\350\216*\277\350\n%\275\274\354\207?\272\204\254\277\000\000\200?Y6\'@[\227\355?9\337\226?\017\211!\276\306\253\313\276\253\206\035\275QS\207?\272\204\254\277\000\000\200?!\251\336?[\227\355?G\376N?\244+\304\275\301$\022\277]Rb\275\274\354\207?H(\255\277\000\000\200?\350CQ@[\227\355?}\323\217?\317\302\033\276=\177-\277Ky\023\275\274\354\207?H(\255\277\000\000\200?\310\322\013?[\227\355?\312\233\010?\330\013~\276\342\031\t\277N\326v\275\274\354\207?H(\255\277\000\000\200?\366e\201?[\227\355?\230\273@?\216\010D\276\261\033e\277\201\326s\275QS\207?H(\255\277\000\000\200?\252\254\301>[\227\355?\253\316\256>1\332\233<\357{\005\277\336I\237\275QS\207?H(\255\277\000\000\200?\264bP?[\227\355?\0315\n?\027\3569\275r\007\037\277\'=\214\275QS\207?H(\255\277\000\000\200?\014\026\t>[\227\355?\226\330\275\274\236\201\207\276\374\357\231\276\003.\246\275QS\207?H(\255\277\000\000\200?\324\303\344?[\227\355?5\273O?\351\360\r\276C\223\314\276r\022\002\275QS\207?\272\204\254\277\000\000\200?\335\356M?[\227\355?5\264>?\307F(\275\223\315\036\277\310\265\"\275QS\207?\272\204\254\277\000\000\200?\377\200\005@>\020*?\266\232\221>\243\007\271\276O9\354\276\222<c\275\274\354\207?,\341\253\277\000\000\200?\0243\232?\264m{?\032\301\242>-\014\'\275\203\304q\277j\251\331\275QS\207?\235=\253\277\000\000\200?\n#\251?[\227\355?\376:\377>F\353l\275x\033\276\276f\215\260\275QS\207?,\341\253\277\000\000\200?\227x\275?[\227\355?\334\030G?\327F\272\275\205]G\276@\014\206\275QS\207?,\341\253\277\000\000\200?\001 \367?>\020*?+\020\000?mH/\276\332>\306\276L\000\255\275QS\207?\235=\253\277\000\000\200?J\217\277?\210\342\207?_\000\307>O\004\027\276#Z\262\276\006\264\227\275QS\207?\235=\253\277\000\000\200?$\316\237?[\227\355?\3367\267>_]\013\276\000K\360\276\377%\251\275\347\271\206?,\341\253\277\000\000\200?\206\331\201?[\227\355?\332\244d>)\010\236\274e2\010\277\273\010\257\275\347\271\206?,\341\253\277\000\000\200?cU]>[\227\355?ER\363\2731\345\345\275^\363.\276\350L\326\275\347\271\206?\272\204\254\277\000\000\200?\251Q1\276[\227\355?U\331\250\276\375-\207\275\246\002+\277\323\014\366\275\347\271\206?\272\204\254\277\000\000\200?\331\027\347\276\3469\234?\360\023\n\277a\216/\275]W\305\276\n\354\372\275\347\271\206?\272\204\254\277\000\000\200?\003\274\022>[\227\355?k\251\253\274\221Q\246\275\017%\246\276\215\340\233\275\347\271\206?H(\255\277\000\000\200?\307\304,>[\227\355?\033[\n>\234\373\214\276\277\333O\277\313\367v\275\347\271\206?H(\255\277\000\000\200?({\306<[\227\355?*\000\257\274\213\241n\276\221\263S\277\013/\243\275\347\271\206?H(\255\277\000\000\200?\003\034$<[\227\355?,7`=y\213\006\274\206\370\007\277\347\272\272\275\347\271\206?\326\313\255\277\000\000\200?\303\362\315\276\240\350\304?.E:\276\336\250\014\276\350\376\260\276\313@\260\275\347\271\206?\326\313\255\277\000\000\200?\034\245\354\276C\221\260?a\305\310\276I\355\364\275\253\211\344\276r\245\262\275\347\271\206?\326\313\255\277\000\000\200?s\234)\276[\227\355?\316\354\340\276\2213\367\275\264 \004\277\207\027\251\275\347\271\206?\326\313\255\277\000\000\200?`i\241\277\224e\246?c\234[\277\357\343\205\275\350\354\030\277\032Il>\347\271\206?do\256\277\000\000\200?\205r\222\277[\227\355?X\351\001\277\272\361f\276\304\234\211\277\241\372\272\275\347\271\206?do\256\277\000\000\200?L\032e\277M\223\275\277\351#%\276K\0144>\rZ\207\277B\351\233\275} \206?do\256\277\000\000\200?u\003\027\277\376?\331?\224^\036\277\312\306a\276\325\256\200\277\024^\243\275\022\207\205?do\256\277\000\000\200?\365\202/\277[\227\355?\366?\300\276\233n`=i{\210\277\223\366\307\275\250\355\204?\326\313\255\277\000\000\200?\363\314\002\277C\221\260?\371d\243\276\250%\242\275_0\001\277\033#\203\275\347\271\206?do\256\277\000\000\200?\035S^\277[\227\355?\233\242\262\276M\235c\273\'\267s>\333\264i\275} \206?do\256\277\000\000\200?\201z\253\276[\227\355?\364k_=\017\203\374\273\212$g\277\303{\217\275\347\271\206?H(\255\277\000\000\200?\036c?\276[\227\355?*\n\301\276\223f@\276\345\221\200\277\323\374\253\275} \206?H(\255\277\000\000\200?\253\264~\277O\024\317?(a\037\277\267\324\301\275\262\030\321\276\215\006\361\275} \206?H(\255\277\000\000\200?c\002\"\277\376?\331?\367\373B\277zI\372\275E\013\206\276P\016\256\275} \206?\326\313\255\277\000\000\200?\rV\025;[\227\355?\346\224\327\276\\9\210\276\\\374j\277\017d\350\275} \206?\326\313\255\277\000\000\200?\231\010\351\276[\227\355?\031t\226\276y\254\033\276\333\350\n\277X\234\323\275\347\271\206?H(\255\277\000\000\200?F\3502\277C\221\260?z\000\305\276\250\253\r\276O\225\357\275\335\306\343\275} \206?H(\255\277\000\000\200?\245*\007\277C\221\260?\003#\007\277\216\261\005\276\026D\014\277.4\355\275} \206?H(\255\277\000\000\200?vab\277[\227\355?Q\251f\277\035d\227\275\264lA\275!U\024\276\347\271\206?\272\204\254\277\000\000\200?\223\002\215\277\206e\335=\001\023M\277T\267\t\276\313\302\376\276\247\216\315\275} \206?\272\204\254\277\000\000\200?\263\0016\277>\020*?L\246\363\276\334\362\264<UJw\276\003\274\354\275\347\271\206?\272\204\254\277\000\000\200?l\374[>[\227\355?I\220\250\276\363\323\034\276\314\016U\277\013\001\337\275\347\271\206?,\341\253\277\000\000\200?1\276\371\276[\227\355?!\n\007\277\267\374\267\275\330\252\357=\260\255\n\275\347\271\206?,\341\253\277\000\000\200?J\221\220\277[\227\355?\250^S\277\267\226\216\274)m\250>9t\220\275\347\271\206?,\341\253\277\000\000\200?l\0067?\264m{?\216\363g=8\243\326=|\016\203\277\254\017\263\275} \206?\235=\253\277\000\000\200?\353 1\277\210\342\207?\0010\003\277l}4<\025y+?\362\203O>} \206?\235=\253\277\000\000\200?\003\332\304\277[\227\355?]I\226\277\321\363\216\276\240~\005?3\350\343=} \206?\235=\253\277\000\000\200?\006\375\265\277[\227\355?O\330\232\2770\363\244\276\302N\212\275&Ee>} \206?\235=\253\277\000\000\200?Nb\246\277[\227\355?\306dp\277\274~\236\275\236\017\330?\204R\037?} \206?,\341\253\277\000\000\200?\340\343\264\277[\227\355?A\263\201\277\014\247\302\275\350\234\205>^\347\367\275} \206?,\341\253\277\000\000\200?- \217\277\203a\001?y\306d\277\373\303\303<i\241a>4\233\t\276} \206?\272\204\254\277\000\000\200?3\340\004\277O\024\317?k\244\"\277\213\211\303\275\205k\"\277a.\317\275} \206?\272\204\254\277\000\000\200?\004\275\030\277[\227\355?\023\341\313\276\357pD\276q\354\252\272a\345\310\275} \206?\272\204\254\277\000\000\200?\376g\302\273[\227\355?\315\342@\276qL\014\276Bgi\277\216y\303\275\022\207\205?H(\255\277\000\000\200?\211\033&\276[\227\355?8\366\005\275XQ\357\275\t\021\007\277W\276w\275} \206?H(\255\277\000\000\200?N\202V\277[\227\355?\274\247\371\276\006\262\025\276\025*A\277u\347\333\275} \206?H(\255\277\000\000\200?A\2673\277\3469\234?\230HA\277\0069\243\2758A\035\275BK\337\275} \206?\326\313\255\277\000\000\200?7U5\277C\221\260?&W\031\277q\263<\276l4\017\277G\365m\275} \206?\326\313\255\277\000\000\200?D\316|\277[\227\355?\253A\305\276\260)\270\274_\001\n\277%}\255\275\022\207\205?\326\313\255\277\000\000\200?dd\r\277[\227\355?[>\203\276W\177\233\275\350\033\020\277\246i\234\275\022\207\205?H(\255\277\000\000\200?\304\000)\277[\227\355?\'\274\322\275|\221h\275\276\236}\276\003\333 \275} \206?\326\313\255\277\000\000\200?\273\205\201\277\376?\331?\273\023\322\276\256\027 \275\343C\201\275rD\203\275\022\207\205?\326\313\255\277\000\000\200?\316\222\202\277[\227\355?\007\377\262\276\340\2358\276j[\323\276\004\376\264\275\022\207\205?H(\255\277\000\000\200?\321\314~\277O\024\317?u\023{\276\340\352\212;\"6i\275\344\030\244\275\022\207\205?H(\255\277\000\000\200?5\355C\277[\227\355?\223\2420\276\322j\304\275x\033\276\276\364!\244\275\250\355\204?H(\255\277\000\000\200?\037\0253\277O\024\317?H\215C\276S\224\306\275\262\272\342\2765f\245\275\022\207\205?\272\204\254\277\000\000\200?\274a\201\276[\227\355?g#\200=\2556\023>\342\352\021\277m\337\257\275\022\207\205?H(\255\277\000\000\200?r\352/\277[\227\355?\311\021\221\276\235E\260\274\035\211\r>\274\004f\275\022\207\205?H(\255\277\000\000\200?\254\275U\277\264m{?\'m\036\277\205\257\212\276\237!@\276\231d\270\275\022\207\205?H(\255\277\000\000\200?\tE*\277[\227\355?&\034\014\277{D\305=/aT\277I\223\366\275\022\207\205?\272\204\254\277\000\000\200?\2149\302\276[\227\355?\036C\211\276\314%\222\2755\222R\277\234t\303\274\022\207\205?\272\204\254\277\000\000\200?\366\350\036\277[\227\355?\237\016q\276\223t\'\276\273Q\002\277\274\325\222\275\022\207\205?\272\204\254\277\000\000\200?\251\200\210\277[\227\355?!K\374\276\310\306\215\275\301\362\206\276P\370\307\275\022\207\205?\272\204\254\277\000\000\200?\317\353\226\277\203a\001?c1\177\277\033jN\276\207*\321?\236\253\352\275\022\207\205?,\341\253\277\000\000\200?*5\002\277[\227\355?\327\016\324\276\271\366\322\275\014;t=\364\267\352\275\022\207\205?,\341\253\277\000\000\200?\253\257\372\276[\227\355?g\332U=\224\327\002\273\263|\000=R6\265\275\022\207\205?,\341\253\277\000\000\200?m\273\201\276[\227\355?{\340\311\2744\274`=#\366\033\276\335?\222\275\022\207\205?,\341\253\277\000\000\200?\211i\337\276\240\350\304?\312\314\230\276\001K\200=(sP>\326\333S=\022\207\205?\235=\253\277\000\000\200?\362\342\330?[\227\355?m\277\025?\376G\243\276\306\014N\277p|O\275\022\207\205?\235=\253\277\000\000\200?Sk\036?[\227\355?\345\276\026>\255\264!\275\017\265\037\277O\312y\275\022\207\205?\235=\253\277\000\000\200?\350\333\215\277[\227\355?>\006D\277\'\365h\276\346\206\367\276\235\350\333\275\022\207\205?\235=\253\277\000\000\200?\213 \006@[\227\355?$\300t?\025\247\303\275(_M\277x\035\201\275\022\207\205?\017\232\252\277\000\000\200?\214\":@[\227\355?\177\212W?X^\230\276d W\275\022\276\371\274\250\355\204?\017\232\252\277\000\000\200?.NK?[\227\355?@,\024?o\324i=\347\374\305\275\246\253\245\275\022\207\205?\235=\253\277\000\000\200?0\021\244\276[\227\355?\303\317\203\276\206\260+\276#>\225=\273\245\323\275\250\355\204?,\341\253\277\000\000\200?\002\006\035\277[\227\355?\214\0141\276\237\372\212=\246T\251>-\376\251\275\250\355\204?\272\204\254\277\000\000\200?\326Q[\277\362\274\272?x\371\302>\315\313\214>\017\265\037\277\006\231\252\275\250\355\204?\272\204\254\277\000\000\200?\210\226\204\277\376?\331?\204\020+\276\364k,>k\247)\277W\017\'\275\250\355\204?\272\204\254\277\000\000\200?\3728\232\277[\227\355?\302\327n;r\036&>!\342\370\276\016/\202\275\250\355\204?\272\204\254\277\000\000\200?x\313U\277[\227\355?*(\337\276\026\026\"\275-\361\217\2775?\330\275\250\355\204?\272\204\254\277\000\000\200?\330\351\247\277\362\274\272?d\177\347\276\357\026\221\276\366\254\003\277)\316(\275\250\355\204?\272\204\254\277\000\000\200?\333\216\002\277[\227\355?v*\247\276\327Cz;s\\\201\277\242\272\271\275\250\355\204?H(\255\277\000\000\200?\014;\220\277\3469\234?\237i\'\276\\9\210\276\277\333O\277l\312h\275\250\355\204?H(\255\277\000\000\200?\231\264X\277\240\350\304?CY\317\276\265\334\372\275\t\364\247\276\342\177\237\275\250\355\204?H(\255\277\000\000\200?\372\262_\277\203a\001?G\300\273\276y\3146\276\213\256\270\276p4r\275>T\204?\326\313\255\277\000\000\200?\244\312\035\277[\227\355?I^\r\277\301\241\222\275\025\2342>\022\'\273\275\323\272\203?H(\255\277\000\000\200?%\\\215=\222\344\224\277*\261>\277K7\'>\320E\275?\034\273\031\276>T\204?do\256\277\000\000\200?\003\371\006@[\227\355?`\241\223?>O\312\275\230T\330\276@q0\275\323\272\203?\201\366\251\277\000\000\200?\374\223\206@\371\276R?\356i\200?\2231s\276y\226\013\2771dG\275i!\203?\363R\251\277\000\000\200?4.\242@\210\342\207?\263\n\265?2\345P\276\315:\270\276-\371H\273i!\203?\363R\251\277\000\000\200?N\210\214@[\227\355?\336\237\303?\272\350\365\275q\352\277\276\322\371\262\274i!\203?\201\366\251\277\000\000\200?\202j\021@[\227\355?\221\344\222?!\240\n\276x\033\276\276\332\341\010\275i!\203?\201\366\251\277\000\000\200?\263V\217@[\227\355?\325\030\277?g\215\007\276\332\036S\276\214M\203;i!\203?\201\366\251\277\000\000\200?\344`\210?[\227\355?\260!o?\037I\340\274\341\377=\277P\247B\275\323\272\203?\017\232\252\277\000\000\200?\311!\017@[\227\355?=(p?E?l\276\244X\346\276$\233\207\274\323\272\203?\017\232\252\277\000\000\200?[L$@[\227\355?\214\277\270?\013\244\241=)\216D\277\260\362_;i!\203?\201\366\251\277\000\000\200?\351\350\231?[\227\355?9\207\'?\207\\]\276<\n!=\230?\300\274i!\203?\017\232\252\277\000\000\200?\\\225\207?[\227\355?v\341\242>\347\2775\276\333X\221\276x\030\352\274i!\203?\235=\253\277\000\000\200?\007\3334?[\227\355?m\2313>\367<Y\276\177\350%\276t\264\204\275\326\021\177?\201\366\251\277\000\000\200?O\223\344>[\227\355?\'\245)?\262nC\276\026D\014\277t\374]\275\326\021\177?\201\366\251\277\000\000\200?\353u??[\227\355?Of\213?+%\r\274U\313l\277\354d\221\275\326\021\177?\201\366\251\277\000\000\200?&\260%\277[\227\355?\371\016\326\275\021=\271\275\213\202U\277\360,\264\275U\"\200?\017\232\252\277\000\000\200?\024\010\224\276[\227\355?\241\374y\276\t\314>=O\311e\277\240\337J\275U\"\200?\201\366\251\277\000\000\200?\366\325\366\275[\227\355?\3707\256\276\007\226\005\276\261\\\364\276\365\243\211\275U\"\200?\017\232\252\277\000\000\200?\304O\346\276[\227\355?\251L\234\276\313\264T\276V\316\031=\204\356=\275U\"\200?\235=\253\277\000\000\200?\324\353\272\276[\227\355?\237\310x\276\354\244\036\276\253HU\277\226n\243\275U\"\200?\235=\253\277\000\000\200?K\023a\276[\227\355?\227\367\022>\226ty>\247\276\007\277Sv\253;U\"\200?\235=\253\277\000\000\200?\003\262l>[\227\355?S4L;<\222^\276\340Ca\277\2510\014\275U\"\200?\235=\253\277\000\000\200?\240\376\215\276[\227\355?3l\236\276r\314\346\275\221\342J\277\230\343Q\275\300\273\200?,\341\253\277\000\000\200?W\334\377\276[\227\355?%\237t\276\021\204\251<w\036R\277\231\262\230\275\300\273\200?,\341\253\277\000\000\200?\207] \277[\227\355?\354\262?\275\023,\255\275\356\356\037\277\312u\016\275\300\273\200?\272\204\254\277\000\000\200?\207SW\275[\227\355?{6\251\276\234\014Y\276\246\3233\277z\266\210\275\300\273\200?\272\204\254\277\000\000\200?\205\366\036=\224e\246?\340\320\n\2773U\277\276\223\315\036\277\244\006V\275\300\273\200?\272\204\254\277\000\000\200?\271:;?A\020\237\277\017\256\003\277tg\017<\253\347\322\276Sf\330\275\300\273\200?\272\204\254\277\000\000\200?\372\2672\277\206e\335=\241|p\276\213\203-\276ey\375?\377t\360=*U\201?H(\255\277\000\000\200?\3653%\277\210\342\207?}\021\001>~\304\001\276\357=\n?\024\177\203>U\"\200?do\256\277\000\000\200?\374n.\277k\252\352<8\322\016\277\313\230`\273\334\334\002@\003\037P\274\300\273\200?H(\255\277\000\000\200?S\346\201\277\210\342\207?3\270\005\277H\022\020\276$\246\010\277O\270\003\275\300\273\200?\326\313\255\277\000\000\200?\'\017\363\276[\227\355?\327\002\370\276+\206\332\275\330$\373\276_7^\275U\"\200?H(\255\277\000\000\200?\004\026\202\275\235e\005\276T\235\005\277\230\224\363<\277\376\326>\001t\331\275U\"\200?H(\255\277\000\000\200?x\035/?\257kX\277\205\275\342\276\207\010\352=\002\001%\276\255\317\353\275\326\021\177?\326\313\255\277\000\000\200?!\3246\277\376?\331?\315p\266\276\276\324\255\276x8\035\277\\K\245\275\300\273\200?H(\255\277\000\000\200?\225\337\361\276[\227\355?,^\201=*\253\037>\214\372\016\277\350\n%\275U\"\200?,\341\253\277\000\000\200?\005\031`?[\227\355?\351\266\306\275\274\365\332\276\246r\261\276\324\'\210\275U\"\200?\272\204\254\277\000\000\200?\031\220\037>[\227\355?\200\252\210\276\034\036\373\275\\=\372\276A\320\203\275U\"\200?\272\204\254\277\000\000\200?\2243\034\277[\227\355?\332\223.\277\t\326\276\275\273Q\002\277\r,\357\275U\"\200?\272\204\254\277\000\000\200?\235\214\222\276[\227\355?gz\251\276\326w\027\2757\251\211\276g\304\262\275U\"\200?\272\204\254\277\000\000\200?\324I\242\276[\227\355?}\273q\276[\305\021\276\\=\372\276\361\031\333\275U\"\200?\235=\253\277\000\000\200?\354y\364>[\227\355?\035%\204\275;\340\233\275\214>2\277F\223\266\275U\"\200?,\341\253\277\000\000\200?\270\206?>[\227\355?\007\260,\276\272\032>\274\341],\277\021\374\334\275U\"\200?,\341\253\277\000\000\200?\004i\212\276[\227\355?\300)&?\274\222\201\276\221Ue\277\314O\206\275U\"\200?,\341\253\277\000\000\200?e_\355\276[\227\355?\374|\021\276\263\321:\275c\314\346\276{\241\250\275U\"\200?,\341\253\277\000\000\200?^+\006\277[\227\355?;\340 \277\332\325G\276\355\025\344\276k\304\340\275U\"\200?,\341\253\277\000\000\200?]\304G\2777\016\222?\265B>\277;\264z\275\341\377=\277\266\325\253\275U\"\200?\017\232\252\277\000\000\200?ec\361\2767\016\222?\"]\010\277\266\333\267\275\246Q\025?\320\336\326\275U\"\200?\235=\253\277\000\000\200?V.&?[\227\355?\366\301\244=\212\2374\276\221\177\335\275n}z\275\326\021\177?\201\366\251\277\000\000\200?-L\024>[\227\355?\022\336[>\322\314\304\275\322\262m\277\331y\272\275\326\021\177?\201\366\251\277\000\000\200?\314\237T\276[\227\355?\205%M\275q\342\356\273\315\334\311\276\261\200\304\275\326\021\177?\017\232\252\277\000\000\200?c\000 \277[\227\355?\nz\005\277\203\214\257\275\351J\007\277#\335\357\275\326\021\177?\017\232\252\277\000\000\200?\250>}?[\227\355?\243\217\007?\020W\206\276=\177-\277\264N9\275\326\021\177?\201\366\251\277\000\000\200? \177G=\376?\331?\331f\006>\024Q\036\275\272f.\277`\232x\275\001\337}?\201\366\251\277\000\000\200?YK\021?\224e\246?\370l\213>\035d\227\275\032pk\277\320\273-\275\001\337}?\017\232\252\277\000\000\200?\201\317\006?\235e\005\276bH\017\276\335\027\244\276^\367\204=7\241\352\275\001\337}?\017\232\252\277\000\000\200?\325L\327\276[\227\355?T\003\025\276\234T\r=\003\177\206\276\226d\263\275\326\021\177?\017\232\252\277\000\000\200?\216G\326\275O\024\317?\353yL\276\372\332\177\275e\242\216\276\341\237\240\275\326\021\177?\017\232\252\277\000\000\200?n\027\307>[\227\355?\240\217\234>\214\033\307\275\264\220\212\2761\233\023\275\326\021\177?\017\232\252\277\000\000\200?\035Y\257>\227e\033\277\010\241\332=\204f8\276\266\016\252?F\255\211\275Xy{?\017\232\252\277\000\000\200?\244\315\235>D\020\224\276\375\302W\2765\264\255\276\305\357\356\276\242\367\227\275,\254|?\235=\253\277\000\000\200?\203\002\374?\266m\360\277o\241\023?&C\230\275\331\226\251@\222Z\005\275\203Fz?\017\232\252\277\000\000\200?<.\242\2768\020@>\022\005\323\276z\031\305\275\365\352\256?\260\253\236\275Xy{?\272\204\254\277\000\000\200?\230\256#\276[\227\355?\220\305\265\276\r1\032\276\206\225\232\275zi\273\275\326\021\177?\235=\253\277\000\000\200?^v\305\275\240 P\275{\t\240\276 \361\325\275\344\007\257?\347S\322\275,\254|?\272\204\254\277\000\000\200?G=\362>\271m\345\276\262\342L\276\021\030h<\032\356\216?\336\246\220\275U\"\200?\272\204\254\277\000\000\200?\017\201\265\276\365\274/\277\334\325B\277bkF=\237s>\277\257\334\374\275\001\337}?H(\255\277\000\000\200?\374\226\344?\360;\251\277\242Q0?\276\373\'\276v\'v@\207\r\226\274U\"\200?\021\032\237\277\000\000\200?z\253\326?\266m\360\277\216\372$?\216g\307\276\214L\215>\254v\377<Xy{?\021\032\237\277\000\000\200?\252\375\315>\341\270\025?\342\335\002?\212\261%\275\322\371==\203A\332\274\256\023y?\021\032\237\277\000\000\200?\342\316@?V\026g?\004!\003?\331\313<=\206\232\031\277\275\262\362\274\256\023y?\237\275\237\277\000\000\200?\245\177\025?\341\270\025?\271\356\271>)W\264\275\350<,\276\362\213\014\275\256\023y?\237\275\237\277\000\000\200?\326QY?\023\303V\276Mo\366>\200%p\276\336rQ\274\203\030u\274\203Fz?\237\275\237\277\000\000\200?\334\020\234?8\020@> \014N?\331k\'\276\177\344O\275\311y/\275\203Fz?-a\240\277\000\000\200?c\245k?\327\266\210>VU\010?\360\001K\276\177\252\252\276\336\243\251\274\203Fz?-a\240\277\000\000\200?&\261V?\203a\001?\032\022\202>\373\330\224\2766\217\276\276\373a\374\274\256\023y?-a\240\277\000\000\200?\274],?\203a\001?K\016=?\017H\266\275>|\231\2766\360/\274\256\023y?\273\004\241\277\000\000\200?\242\220\204?\206e\335=W\232N?j;\334\275.\242\343\276\362\030,\275\203Fz?J\250\241\277\000\000\200?\220\010\322>\341\270\025?\357\354w=!\264C\276.&\355>\016\001\210\275\256\023y?\330K\242\277\000\000\200?n\307\211>D\020\224\276\264\3622\276J\257\335\275H\2034\274%8\211\275\332\340w?J\250\241\277\000\000\200?\025\016\240\275\206e\335=\240\237\266<\321>\376;(\377\205<\276dP\275\005\256v?J\250\241\277\000\000\200?\360\246>?8\020@>\344*\023?\277\360\320\275\350\354\030\277\305\314\341\274\256\023y?\273\004\241\277\000\000\200??\240{>8\020@>\031\333\247>\301\353\"\276\023\200\374\276\277\266+\275\332\340w?\273\004\241\277\000\000\200?`\3454?\235e\005\276\230\"\340>\315\217\001\276\374\250\222?\370l-\275\256\023y?J\250\241\277\000\000\200?\250\315\217?\206e\335=RJ\376>}\231\037\276\231\376\034\277\006\256\345\274\332\340w?\273\004\241\277\000\000\200?\202,\037?\233g>?\206\313\036=\270\367{\276\003\261\021\2772\267;\275\256\023y?-a\240\277\000\000\200?\\l\000?\233g>?\203\321\337=%S@\276\300\030\242>\314\347\003\275\256\023y?-a\240\277\000\000\200?\365\3239?\327\266\210>\021c\370>\211X^\274c\254s\276\t\030\306\274\332\340w?-a\240\277\000\000\200?\014\026\t>\371\276R?\213\205\372\275\033\346w\276\222o0\277\352W\222\275\332\340w?\237\275\237\277\000\000\200?d\261\304>>\020*?FEp>\2231s\276$\246\010\277|\0357\275\332\340w?\021\032\237\277\000\000\200?\\\267=\276\221e\261>\301t\023\276N\305\030\276\355\367\333>S\267g\275\332\340w?\021\032\237\277\000\000\200?\217\246\352\276\327\266\210>\241M[\276\331@\234\275[\207^=\312\376\266\275\332\340w?\237\275\237\277\000\000\200?mZK\276D\020\224\276r\352\203\276\322@{\275\314\200F>m\242\224\275\332\340w?-a\240\277\000\000\200?\221e\356\276\221e\261>\250\221\376\276d\206\273\275\010\3507?\254k\271\275\332\340w?\273\004\241\277\000\000\200?\332\3223\277k\252\352<\230\335\001\277\325\327E=\222\337\266\276{\306\360\275\005\256v?\237\275\237\277\000\000\200?\247;\231\276\341\270\025?LC$\276&Ts\275\035\345\220\276p\353\212\275\005\256v?-a\240\277\000\000\200?\230\253\320\2768\020@>Qm\262\276\014\2119\276J\333\261?\202\330\224\275\005\256v?\237\275\237\277\000\000\200?d`\t\2777\016\222?jSA=h\342\276=\301\365\032\277\267e7\275\005\256v?-a\240\277\000\000\200?\247\352\214\276\210\342\207?%\204\027>\001\033c=\205\r4\277\356XB\275\005\256v?-a\240\277\000\000\200?0\276F\277>\020*?[\272\005\277G\204p\276 C{\277\000\274\027\2760{u?-a\240\277\000\000\200?\032\3457\276\344\270\212\277 O\262\276\255\347\031\276\305\227A=d\351\250\2750{u?-a\240\277\000\000\200?\363m\373>\365\274/\277jZ\303\274w\372\"\276\026\226\212>\231\226\262\275\005\256v?\273\004\241\277\000\000\200?m\245)\274[\227\355?2^\204\275\356d5\276y3\236\275\311\226{\275,\254|?\020\332\244\277\000\000\200?\331\310\322=[\227\355?\033\342v=I7\327\275I\307^\277O\234\231\275,\254|?\2026\244\277\000\000\200?\252\260\305>\254k\343?\210\231\377>\310\351\031\276.\242\343\276\253\342\216\275Xy{?\2026\244\277\000\000\200?\245 a\277O\024\317?\025\350\307\275vO\227:6\0378\277!)\273\275,\254|?\020\332\244\277\000\000\200?]s\004>[\227\355?D\336\272<\255\352;\276\245\024\303\276]\302\201\275Xy{?\236}\245\277\000\000\200?l\t+=[\227\355?\314\302\202>OT\211\276\277\nG\277\344?\212\275,\254|?\020\332\244\277\000\000\200?*\206\014?[\227\355?\026\0276?\2158\322\276\203\225z\277\205`\250\275Xy{?\020\332\244\277\000\000\200?\375}\013\277\224e\246?\250\261\005\2765 \013=\272e\005>\215\020\270\275Xy{?\020\332\244\277\000\000\200?5F\247\276C\221\260?q\371<\276\014\'\014\275\363F\342\276Q1\272\275Xy{?,!\246\277\000\000\200?E8\014\277O\024\317?\256A\322\276\027\236\237\275X\241\024\277?&\324\275Xy{?\236}\245\277\000\000\200?\267\330\246\275[\227\355?\352\233+\275c\030g\276]\0266\277J\320\272\275Xy{?,!\246\277\000\000\200?\227G0\277[\227\355?\310\315\234\274}U[\276\\+b\277m\245\310\275Xy{?\236}\245\277\000\000\200?\204<\016\275\224e\246?\'2V\276\3737\030\276\364\002\277\276H\331\253<\203Fz?\273\304\246\277\000\000\200?\010\226\205\276\224e\246?\255\231\251\274\240\230\206\274j\353L\277\330\225\230=\256\023y?\273\304\246\277\000\000\200?+\344\250\276\233g>?\206K\301\276\257\021;\276\213\202U\277\207\361|\275\256\023y?,!\246\277\000\000\200?}O\250=\341\270\025?\341w\016\276\241\233\026\276\222\277C\276u\'\222\275\332\340w?\273\304\246\277\000\000\200?\274a\201\276\203a\001?\0379c\276\366\022\263\275\027\304\306\274M\324 \275\332\340w?\273\304\246\277\000\000\200?\307\304a?\341\270\025?T\214\244>0\351H>\220C\217\277>\251\010\275\256\023y?Ih\247\277\000\000\200?\001\252\206\276\210\342\207?A\004\272\276\226*a\276J\004\261>\234\316\003\275\203Fz?,!\246\277\000\000\200?\271\3546\276C\221\260?\n3\217\276\202Gv\276\026\025\025\277\375\261%\275\203Fz?,!\246\277\000\000\200?\271\337\337\275\266m\360\277\264\341\337\275\020@|>>;\n\277\244Eh\275\203Fz?,!\246\277\000\000\200?^+\006\277\233g>?\331\217\373\276=\246\032\276\034\2126\277\315:?\275\203Fz?\236}\245\277\000\000\200?\0172\241=7\016\222?\302D\203\276\323m\014\276\333L!?\376\324\r\275\203Fz?,!\246\277\000\000\200?\343\202\270>>\020*?tUZ>\346k\227\276\347_3\277L\326a\275\256\023y?\236}\245\277\000\000\200?\327\t[\276\341\270\025?a\351=\276`%q\276\313\201o\277\305\321\005\275\256\023y?\236}\245\277\000\000\200?\354.\216\276M\223\275\277\260h\254\276\364\364\231>\244\372\367\276\352\357\370\275\203Fz?\236}\245\277\000\000\200?\202\200b\277\240 P\275\342\303!\277\332\031\034\276K\235\006\277\311\357\037\276Xy{?\020\332\244\277\000\000\200?U~\001\2778\020@>r\036\361\276\362\315x\276\240/\033\277\272\002\335\275\203Fz?\020\332\244\277\000\000\200?\010\226\205\276\362\274\272?\032\262\305\276S_\245\276\033,H\277\3051\315\275\203Fz?\020\332\244\277\000\000\200?i\227\016\277k\252\352<*\253\342\276\313\307\217\274\232M\007?y\240\276\275\203Fz?\020\332\244\277\000\000\200?!.\030?[\227\355?c\216\202>\332\273\225\276e2\010\277):o\275Xy{?\2026\244\277\000\000\200?N\203\330\276\233g>?\020\315b\276-M(=\t\204!\277\371T\320\275Xy{?\2026\244\277\000\000\200?\247\326\372\2747\016\222?\335\247\225>=o\237\275}\220\337\276\335DU\275Xy{?\2026\244\277\000\000\200?\204\300\314?\221e\261>\375,K?\265\346`\276\324*\'\277z\375P\275Xy{?\364\222\243\277\000\000\200?\"%\010@\023\303V\276\252/8?G9a\276\341\315\262\276\001\316;\275\203Fz?\364\222\243\277\000\000\200?GF\207\274\203a\001?\335\222g=\262@\201\276\0108\313\276\376\024e\275\203Fz?\364\222\243\277\000\000\200?ek\213=\203a\001?\250-K\276\212\303o\276\245uE\277\340Y.\275\256\023y?f\357\242\277\000\000\200?t\313\261?D\020\224\276z\335\370>|,\332\276vbu\277nn\325\275\203Fz?\364\222\243\277\000\000\200?\036c?\276\371\276R?\016\204Y>2\345P\276\345\221\200\277\231E\257\275\203Fz?\2026\244\277\000\000\200?s;\357\276\224e\246?B\353\250=\263T%\276\010\310D\277Z6\244\275\203Fz?\2026\244\277\000\000\200?\007\334:\276\224e\246?\036\000\262\275%\324.\276\271\247\275\276\321\267\236\275\203Fz?\364\222\243\277\000\000\200?\226\354\314\276\3469\234?\226\301\236\276`\234|\276^\322\022\277q@\243\275\256\023y?\364\222\243\277\000\000\200?\361\262\035\276\3469\234?\304p\211\275\022\377r<\364\2228\277>\273\240\275\256\023y?\364\222\243\277\000\000\200?\336Q\275\276\257kX\277f\026\357\276\004d\212=!\222e?\363{\371\275\256\023y?\020\332\244\277\000\000\200?\213\335)\277\235e\005\276\320\375\033\277\253\215\375:J\\^\275\000N\004\276\256\023y?\2026\244\277\000\000\200?QQ\277\275\257kX\2777\270.\277\325\274\216\276ki.?t\211\276\275\256\023y?\2026\244\277\000\000\200?\303E^\2767\016\222?\302\360\214=5B\035\276X>\247\275\305\241t\275\332\340w?\364\222\243\277\000\000\200?\225D\214<R\024D\277\326\3670\276*a;\276\025\332\255>\344\232C\275\332\340w?\364\222\243\277\000\000\200?\245\327\241=\341\270\025?\263\226\"<{\367\205\276\3644J\277\204P\205\274\256\023y?\020\332\244\277\000\000\200?\325O*\276\341\270\025?*)\225=\203\321\256\276\010U*\277\227\227C\275\332\340w?\020\332\244\277\000\000\200?\026\302\300>\r\303l\277\311\013\316\276m\333\344\276\373!%\277\3575\276\275\332\340w?\2026\244\277\000\000\200?\236\346&\277\227e\033\277\317,\006\277\343K\257\275\350\177&?SS\262\275\332\340w?\364\222\243\277\000\000\200?*2\200\276\r\303l\277\332\3012\277\324\206V>)k=\276\241\227\350\275\005\256v?\364\222\243\277\000\000\200?\302\226V=\341\270\025?\330iZ\275O,\232\276\222@9\277\014\010S\275\332\340w?\2026\244\277\000\000\200?w\302\030?\341\270\025?q\033F>\306z\014\276~,I\276YA#<\332\340w?\236}\245\277\000\000\200?\341j\240>\233g>?\350\233\255\275G\022\274\275\337U\371\276\233\271\203\274\005\256v?\2026\244\277\000\000\200?\265i\340\275\233g>?N\375\227=\355\240Z\276\214>2\277\241\304\236\274\005\256v?\020\332\244\277\000\000\200?O\246\007<\341\270\025?m\'y;\240\215\365\275\002S#\277I{N\275\005\256v?\020\332\244\277\000\000\200?\303E^\276\341\270\025?B\034\313>\344\013\002<\333\212\034\277\235lM<\332\340w?\020\332\244\277\000\000\200?\025\260@\275\341\270\025?A~Y\276N\030\223\276\002\3654\277\307\353\001\275\005\256v?\236}\245\277\000\000\200?5\343\354\276\341\270\025?\010\020e\276\346\023\272\276\262\327A\277\313jW\275\332\340w?\236}\245\277\000\000\200?w\303\230>\341\270\025?\272\312\"=?=\204\276\020B\005\277n\337\026\275\332\340w?\236}\245\277\000\000\200?ek\213=\377\276\274\276\246pp\276\367\374>\276\340\021\326\276`\332-\275\332\340w?,!\246\277\000\000\200?6\361G\2775\215\200\277\017\262\203\276&si\276\262\327A\277\020\250\017\2760{u?\236}\245\277\000\000\200?\357\353\357>\377\276\274\276c{\233>!3u\275>\332\207\276\017D\2359\005\256v?,!\246\277\000\000\200?\241\244Y?\266m\360\277\377\327\271\275n\2200\276\223Z\004\277?p\300\2750{u?\273\304\246\277\000\000\200?!\340\215>\341\270\025?R\375\244\275i\022w\276\357L\016\277as\313\274\005\256v?\236}\245\277\000\000\200?\201+\227=\341\270\025?\241\370\023>\215V \276\rO\376\276\317\333~<\005\256v?\020\332\244\277\000\000\200?\347\375\212>\203a\001?&\370\260\273r%\277\276\302N\212\275\276\242\350\2740{u?\020\332\244\277\000\000\200?\300\327^>\206e\335=XXD>S\234\001>\372w\340\276\244g~\2750{u?\020\332\244\277\000\000\200?\031\334)?\371\276R?\367\2737\276G\206\277\276(\317\323\276\223\277\250\274\005\256v?\020\332\244\277\000\000\200?U\310\353\276>\020*?\310\226\"\277\204a\217\276\tR\226\276G*\331\275\005\256v?\2026\244\277\000\000\200?\237\214\374\275\235e\005\276\331\347\342<Z\211;\276A\303e=.\223s\2750{u?\2026\244\277\000\000\200?\333\341\020\2778\020@>\371\216\024\276j\310\273=\304\027\365=\256\265f\2750{u?\2026\244\277\000\000\200?\357\357\367\276\3469\234?z=y\276\n\021\016\276\255?\031\276^\257=\275\005\256v?J\250\241\277\000\000\200?\343{i\276\206e\335=\036\244\353\276\356+\217\276\373!%\277r\227d\275\005\256v?f\357\242\277\000\000\200?^+\006\277L\024\332>\022\356\207\276\320\351$>\254\246C\277\352\221\213\275\005\256v?\364\222\243\277\000\000\200?JZ\341\276\233g>?\022\377\020\277\202Gv\276\347_3\277\206G\256\275\256\023y?f\357\242\277\000\000\200?\271\224 \277\264m{?\225#\237\276\220\227\314\275\025|\277>\314\272n\275\332\340w?f\357\242\277\000\000\200?\265\300\354\276\r\303l\277hz\246\276\355\312\330=(o\372\275\231\311\205\275\332\340w?f\357\242\277\000\000\200?\330\277\373=\203a\001?\340\3100\276\350\342\240\276#\272\013>\271\336A\274\005\256v?f\357\242\277\000\000\200?\016z-\277R\024D\277~\276\347\276F\300\2778\301\226\003>\227\357\014\275\332\340w?f\357\242\277\000\000\200?\030*g\277\271m\345\2766?\'\277\0072\362\275\t\021\007\277I\361\354\275\332\340w?\330K\242\277\000\000\200?\303\365O\277k\252\352<>d$\277\337\273\316\276\357{\005\277\322\271l\275\332\340w?\330K\242\277\000\000\200?\254fC\277R\024D\277e\3370\277)kn\274\240\201\231>\017\222y\275\332\340w?\330K\242\277\000\000\200?\250\242\231<\264m{?X\235\244\276\000\321\323\276}\302j\277a\203\203\275\005\256v?J\250\241\277\000\000\200?Q\371$\277>\020*?u\214\030\277\245\006\273\275\275\346\366={5V\275\005\256v?\330K\242\277\000\000\200?\327\t[\276\210\342\207?\367\252\211\276\006\347I\276X\241\024\277\030\315f\275\005\256v?\330K\242\277\000\000\200?r\212F\277M\223\275\2778\027\223\276\013\367A>\027\022\201\276t=\201\275\005\256v?f\357\242\277\000\000\200?\230\'\261?\365\274/\277Z\237\323>K\307\034\277\301\275\227\277\021\026\033\275\005\256v?g/\235\277\000\000\200?yU\223?\327\266\210>\205\227V?\352y\243=\016\233T\277\310\342\270\274\336\257p?\022Z\231\277\000\000\200?\206\267X<\010B\346\277\332v\360\276\264\311\020\276P\325U\276\265S\304\275\t}o?\331\213\234\277\000\000\200?fk\365>\227e\033\277\200\000\225\275\236\332\240\276\001\306=\277>o\215\275\t}o?\365\322\235\277\000\000\200?Sh\236\276\266m\360\277\"\201\206\276\014\3727>\347!8?\007-\277\274\t}o?\203v\236\277\000\000\200?\"\342B?M\223\275\277\215\026\r>\30232\276\023\200\374\276~\237o\275\207\025s?\365\322\235\277\000\000\200?\304\327\240?M\223\275\277,\350\321>%%\021\276\032\271\007@]\307\034\274\262\342q?\365\322\235\277\000\000\200?\005\032/?\271m\345\276Q\245\035>t\361i\276\032\271\007@D\2032\2740{u?\203v\236\277\000\000\200?5F\247\276\341\270\025?*\007\374\276i\366i\276\375\213\003\276,\013\037\2740{u?\237\275\237\277\000\000\200?X?\272\276\206e\335=\272\300\372\275\353\237\362=\223T\214?wiN\2750{u?\021\032\237\277\000\000\200?+\211C\277\023\303V\276\020\323\237?\222\240X@\247\206\204\277\001Z\361\2750{u?-a\240\277\000\000\200?\314\243#\277\023\303V\276\376\261\352\276\216[h=g\020\261\274\037`\226\2750{u?-a\240\277\000\000\200?v\334\303\277k\252\352<\032%b\277\233t\224<_\311\206\277\010\236\027\276\\Ht?-a\240\277\000\000\200?q\327N\277\240\350\304?G$\r\277(\361e\276)\033*\277\262\241\256\275\\Ht?\273\004\241\277\000\000\200?\251\246A\276\264m{?5\256\324\276w\357m=#\031#\277\235e\243\2750{u?\273\004\241\277\000\000\200?\037n\226\2767\016\222?\212\235\002\277\030{\302\276\357C\202\277\252\345\234\275\005\256v?\273\004\241\277\000\000\200?k\234E\277k\252\352<Dl\345\276\364\345X\276\366\034\212\276\247\204\304\2750{u?\273\004\241\277\000\000\200?\324\357\013\277\264m{?\325d\033\2778gc\276\035\345\220\276p\353\212\2750{u?\273\004\241\277\000\000\200?|\2316\2777\016\222?\221/x\276\005\267D>\323\235A\277\363\220\336\2750{u?\273\004\241\277\000\000\200?\326\370{\276>\020*?\010\372\001\277\277\263\261\275x\t&\277U\364\270\2750{u?J\250\241\277\000\000\200??\3743\277>\020*?\247\016\222\276+\206a=$\026\217\276\301\275j\2750{u?J\250\241\277\000\000\200?}L.\277>\020*?\310\030\364\276\232\213\006\276j\231N\276\000\314C\2750{u?\330K\242\277\000\000\200?e\271\320\276\233g>?E\035\313\276_\253\n\276\324\311\244\276\374\351$\2750{u?J\250\241\277\000\000\200?\254f\366\276L\024\332>\236y\016\277\264@_\276A)n?SQ\000\275\\Ht?J\250\241\277\000\000\200?b\366\310\2768\020@>\213\362i\276o\254\367;v?n\276\365\274\003\2740{u?J\250\241\277\000\000\200?; \370\276\203a\001?\243\n\333\276 \n\r\275A\267|\276V+J\2750{u?f\357\242\277\000\000\200?XD\211>V\026g?N_ >\005\031\241\276\263\223\036\277\013\232\r\2750{u?f\357\242\277\000\000\200?~_\270=>\020*?P\220\317>u\324\306\275\306\253\313\276\204\2369\2750{u?f\357\242\277\000\000\200?\253^\030\275\341\270\025??\220\342=\371\336\303\275\340\021\326\276;GD\275\\Ht?\330K\242\277\000\000\200?MyP\276\224e\246?p\354T<r\020F\276\354\365p\276\376\331\202\2740{u?f\357\242\277\000\000\200?\245\316\312=\224e\246?]\305\">\352@\266\275E\013\206\276q\346\033\2750{u?\364\222\243\277\000\000\200?K\0340>\3469\234?c\363\367\274\037\254[\276!~b\276\025\235]\2740{u?\364\222\243\277\000\000\200?\010\345\021\2767\016\222?`!\004\276\177\327\001\276\262\272\342\276\211\004\310\2740{u?\364\222\243\277\000\000\200?-\240U>\203a\001?M\333)=t\234\220\276q\354\252\272k%\'\2750{u?\2026\244\277\000\000\200?ZQF>L\024\332>v\020\205>\304\220\204\275d W\275x\217\005\275\\Ht?\2026\244\277\000\000\200?\336Kf?\203a\001?\3444\274>?\222$\276\024\034f\276$\325\326\273\\Ht?\020\332\244\277\000\000\200?\313\360\324=\341\270\025?~\334\216>\325\212\033\276\017W1\277\021\260*\275\\Ht?\2026\244\277\000\000\200?\032\353\273\276\233g>?\177\241\202>\266\211\336\275i\237\366\276\222\251%\275\\Ht?\364\222\243\277\000\000\200?R\247\370>>\020*?.Tl>\330W\"\276\355u=>\262kU\274\\Ht?\2026\244\277\000\000\200?\376\323\375>>\020*?\025\225\036>\251\265t\276\361v{=\204a\372\274\\Ht?\2026\244\277\000\000\200?\003\341\323\272V\026g?\234\013\r=3\024J\276!@\347\276\222\313\223\274\\Ht?\364\222\243\277\000\000\200?\372e\024=\221e\261> \002J\276\016_y\276)m\250>\225A=\275\\Ht?f\357\242\277\000\000\200?\220\r\251\276\210\342\207?F\0256\274\253\327\252\275\016k4>#Lw\275\\Ht?\364\222\243\277\000\000\200?\335\357\321\276\233g>?KN\247\276\004\216O<\254\325:\277yd\034\275\\Ht?\330K\242\277\000\000\200?|D\331\276\327\266\210>\032#\350\276\301\037\366=\357=\n?\326\203\210\274\\Ht?\330K\242\277\000\000\200?\277~\035\277\221e\261>\260\231\020\277\276v\264\274\314\276\301>&\177\3109\\Ht?\273\004\241\277\000\000\200?\313\231\314\276\371\276R? \300\343\276\214\343\332\275?\332|\274\321DE\274\\Ht?\273\004\241\277\000\000\200?\277\307V\276V\026g?5wH\276\374\371\373=\026\025\025\277=\207\300\274\207\025s?\273\004\241\277\000\000\200?\321\"^\277\371\276R?^b\367\276\362\227\243\276\324Y\036\277\267{\'\275\207\025s?\273\004\241\277\000\000\200?\242\347\226?\327\266\210>d\345M>\023[\256\276\017\307\267\276\3013\350\2730{u?\203v\236\277\000\000\200?~\005Y>:\016\007\277c\017\251\275\210\325Y;\364\344\266>\231\247o\275\\Ht?\021\032\237\277\000\000\200?\2577\250\276\235e\005\276\262s\215\275\030y\177\274Il\035=\326A\207\275\\Ht?\237\275\237\277\000\000\200?\332\202\251\276\240 P\275h \227\276\020T=>\355\261M\276\372\354\342\275\\Ht?\237\275\237\277\000\000\200?\rV\025;\233g>?\277,\023\275RC\375\2750\274\256\276D\001+\275\\Ht?\237\275\237\277\000\000\200?\217\327\222?k\252\352<\272\215\"?\375\210\000\276WC&\277x\021\255\274\\Ht?\365\322\235\277\000\000\200?\374\357\306?\257kX\277g=:?\177\021<\276\337\223t\276\000\312\342\274\\Ht?\365\322\235\277\000\000\200?\020\016\247?\271m\345\276\265#\264>\'\274\315\276\034\207\242\276\323a\350\274\207\025s?\365\322\235\277\000\000\200?\246\211!\277\240 P\275\333\330\037\277\363u\370\275*\'\032\276\034\352\267\275\207\025s?\237\275\237\277\000\000\200?\rV\025;\227e\033\277\375\247x\276c\220Q=\220\027j?\255\307\213\275\207\025s?\237\275\237\277\000\000\200?\227G0\277\221e\261>\2528\340\276\315\217\337\275W\342\243\276\"\236\005\274\207\025s?-a\240\277\000\000\200?\252V\346\2768\020@>\261\243\310\276\014\225{\275x\313*?\021\232B\274\262\342q?\237\275\237\277\000\000\200?8f\024\277\r\303l\277\006\n\"\2779\341\277<\315\304\271?.\240\213\275\262\342q?-a\240\277\000\000\200?k\233\313\275\203a\001?\274\242p\276\225>\306\275\tR\226\276\247\310i\274\262\342q?-a\240\277\000\000\200?\212ti\277>\020*?t\316\261\276\005\327U\276\302N\212\275o\272\315:\207\025s?-a\240\277\000\000\200?\262R\227\275>\020*?l^\332\276\017\036\267\276\254\325:\2771{\200\274\207\025s?J\250\241\277\000\000\200?\rV\025;\203a\001?\344\270\252\276a4\233\276j\274U\2772\355m<\207\025s?J\250\241\277\000\000\200?\310x\335\276\221e\261>\246\343\334\276Y\271\003\276O\225\357\275\t\206\221\274\207\025s?J\250\241\277\000\000\200?V\212\r\277\235e\005\276\372\204\004\277I\r\266=}\013&\274\374\266\245\275\262\342q?\273\004\241\277\000\000\200?\224\341\213>\203a\001?\006h\223>1\345\345\275~~G\277\235\237<\274\262\342q?\273\004\241\277\000\000\200?\327\\\343>\203a\001?\254\177\213>\n\021\016\2766\360@\277\027\307@\274\262\342q?\273\004\241\277\000\000\200?\321#\334>L\024\332>\31231>O\004\027\276\270\356t\277\034\232\327\272\207\025s?J\250\241\277\000\000\200?\nL\262\276k\252\352<\233k\372\276(\036\203\275\033\356L?#\031\235=\207\025s?\330K\242\277\000\000\200?\022\360Y>\341\270\025?\265\344t=]\000\222\276X\241\024\277(\276\246<\207\025s?J\250\241\277\000\000\200?\224\343\013>\341\270\025?\377W6>\322\024\254\275\337\263\347\276\020[\330\272\207\025s?\330K\242\277\000\000\200?\'e\322\276\203a\001?\263\200\320\276\240\2462\276\240\337\207>&`\030\275\207\025s?\330K\242\277\000\000\200?\224\330\264>D\020\224\276\200K\026\276\t\026o\276BsY\276\277\030\213\275\262\342q?J\250\241\277\000\000\200?\372\253\325>\240 P\275\301\203\314>\214h>=\035\027\034\277\312O(\275\336\257p?J\250\241\277\000\000\200?;*\232>8\020@>\024\016\251=\300\264\032\276\357L\016\277\203\351b\275\262\342q?J\250\241\277\000\000\200?\r\306\261>\341\270\025?\215\2161\276M\200\267\276\227\243\204\277{\372}9\262\342q?J\250\241\277\000\000\200?\270\213I\277\023\303V\276:\177\331>\\ \020\275\362f\227\277\371\251\021=\262\342q?f\357\242\277\000\000\200?\275\000\347\274\257kX\277L\000\000\276\273\006\345\275\331\250l@\370\355\222\274\t}o?J\250\241\277\000\000\200?D.\261>\203a\001?\223\203\032\276\276\211z\276^S\210>\245qw=`\027m?J\250\241\277\000\000\200?\361\375\177>R\024D\277s\266\224\276\240\350\306\276\r=f\277\000\362\246\275\207\025s?\364\222\243\277\000\000\200?\272IO\276\257kX\277\333kE>\3255\017<l%\013?}\276\344\274\262\342q?\330K\242\277\000\000\200?\304U7?8\020@>\267NJ\276\003\323\263\276_0\001\277\215\"\270\274\336\257p?\330K\242\277\000\000\200? w\327\275\252\352\321\277\302\036~\276\361\343\262=5\265\331>\215\332J\275\336\257p?\330K\242\277\000\000\200?\340\"\021<V\026g?;&\226=\272T\366>\\H\203\277\036(\r=\336\257p?f\357\242\277\000\000\200?({\306<L\024\332>\347\323.>\376\321\206\276\035\027\034\277\273|;\274\t}o?\273\004\241\277\000\000\200?\250\242\231<\327\266\210>\254\323$\274/\014\206\276\020B\005\277\377\307\243\274\336\257p?\273\004\241\277\000\000\200?\035\002/\275k\252\352<R\234.\275\210\315\203\275\366V/\275\323\016\360<\t}o?J\250\241\277\000\000\200?\253^\030\275\341\270\025?\355\255*\274\262\010k\276\t\342\017\277$\311.<\336\257p?-a\240\277\000\000\200?\305\253z?\341\270\025?\0372K\276\222\205\351\276\300\227,\277;%_\274\336\257p?-a\240\277\000\000\200?\3765\003>\341\270\025?\314\370\035?\245K\234=>j\001\277\210\305\362;\336\257p?\273\004\241\277\000\000\200?Kl>?\341\270\025?\265\360B>\274~\236\275\002$,\277\363\254\304<\336\257p?\273\004\241\277\000\000\200?\301\343\214\276\206e\335=\261/\220\276\244\234{=y,\025@ice=\336\257p?-a\240\277\000\000\200?\177a\304\276\271m\345\276\036T\270\276\237V\276\275$\026\217\276e\254$\275\336\257p?-a\240\277\000\000\200?\325\227k\2758\020@>h\302\004\277\0375\272\276\"]F\277\344&+\274\t}o?-a\240\277\000\000\200?gvL>\221e\261> \307\243\276\031\374\003\277!\320`\277Cn\214\274\t}o?-a\240\277\000\000\200?\341\033\010=\341\270\025?\227\305U\276\346a\017\277<\224Y\277\222\211\213\274\336\257p?-a\240\277\000\000\200?\226\2226\277:\016\007\277_9\023\277\305\235\002\276\005\250b@\220`~=\336\257p?\237\275\237\277\000\000\200?\370I;\277\235e\005\276\244\021\022\277l\265\346\275\0265\010?\244\216c\274\t}o?\237\275\237\277\000\000\200?\341\276\341>D\020\224\276~\234\225\275\244\350U\276\r.b?Q#\312\274\336\257p?\237\275\237\277\000\000\200?\036\301\036>>\020*?\344\334\270\275IJ!\275\356/\257\276\346\246p=\336\257p?\021\032\237\277\000\000\200?\240\242*\276\365\274/\277m\200#\277K\311\330\275\301\202\000\2773\200\324\275\336\257p?\021\032\237\277\000\000\200?\250\233\020\275\221e\261>Q\353\372\276\273\005v\276\232\213\002\277\030\375v\274\262\342q?\021\032\237\277\000\000\200?w\016\301\274\221e\261>\235[\201\275\377\315\322=Xr\035\277\371\247\277<\336\257p?\021\032\237\277\000\000\200?2\324\253\276\221e\261>j\037g>\334\347\000\275.\324n\277\350\337\223\275\t}o?\365\322\235\277\000\000\200?Cr\342>\203a\001?\3157K>C\214D\276q\352\277\276\212(\246\2744Jn?g/\235\277\000\000\200?\330\274J>\327\266\210>\205\247\241=\206\310\375\275!F(=i\337\332\2744Jn?g/\235\277\000\000\200?\303%\252?\203a\001?\316\3433> \272u\276\363\326[\277O\355C\2754Jn?\365\322\235\277\000\000\200?\247\326\372\274\203a\001?\276\265Y\276Ns\351\276\354\030x\277\355\250u\2754Jn?\365\322\235\277\000\000\200?%\247\235\276\327\266\210>?q\010\276\371\361M\275\214\372\016\277\340n/\2754Jn?\365\322\235\277\000\000\200?\360\264?<\203a\001?_;\301>\232\r\002>\347_3\2773\314,;4Jn?g/\235\277\000\000\200?0\276\233\275\341\270\025?M\252+\276_\345\216\276\263v\277\276\270JC=`\027m?g/\235\277\000\000\200?\020\345\230=>\020*?x\"\000>9\010>\275y\226\013\277Pw\336<`\027m?g/\235\277\000\000\200?\241]\">\341\270\025?L\006\372\274X\330F\276\026\346\035\2775\032\365<`\027m?\365\322\235\277\000\000\200?\210\264_>\203a\001?}\271k\276\323|\213\2765c[\277\327\013q\2754Jn?\365\322\235\277\000\000\200?xj\362\275>\020*?od\314\275\306\367\300\275wC\304=\265_\006>\t}o?-a\240\277\000\000\200?\200o\037\277\r\303l\277\274|\274\276\243N\247\276\325\205\201\276m$\305\2754Jn?-a\240\277\000\000\200?D\202\230\275\203a\001?\204\"\371=0\253$=!~b\276\217\017$=\t}o?\237\275\237\277\000\000\200?\2476\302>\377\276\274\276v*\356\275\332\247\027\276g\020\261\274\3263\013;\t}o?\237\275\237\277\000\000\200?\264\357\214\273\360;\251\277%K\270\275H\320\204\275Y\323\335?\307k.\275\t}o?\021\032\237\277\000\000\200?\nU\211\276\271m\345\276\006\376(\275R1\200\276\264 \004\277\241\350\225\275\t}o?\021\032\237\277\000\000\200?\3760\003\2775\215\200\277\253f\233\276\006\255o\276D\337\"\277\212p\321\275`\027m?\203v\236\277\000\000\200?\"\220\256=L\024\332>)\336\252\275\377\261\243\276H\350z\276\350yy=\t}o?-a\240\277\000\000\200?\313\360\324=\203a\001?\267.w\276q\263<\276\000\333i\277\264$f=\t}o?-a\240\277\000\000\200?\272HI?\341\270\025?\343S\265>u\325\000<\"\374\303\276\212\027\264=\t}o?\273\004\241\277\000\000\200?R\005\340>\203a\001?\234\3664\276\360B\312\276*\250\017\277\362E\216<\t}o?\273\004\241\277\000\000\200?\005ln?\235e\005\276z\221\'>b\202l\276J\"\271\276\313O\212<4Jn?-a\240\277\000\000\200?\032?\'\275\023\303V\276\023<\364=\332\272V=0\274\256\276M\243-\275`\027m?-a\240\277\000\000\200?\313\346\320>\374\276\307\277GP\261\275NN8\276\364\366N?\023\223\314<`\027m?.\241\232\277\000\000\200?\212t\276\275\341\270\025?\250Zw\276$%$\2768A\035\275\021\303\310=\213\344k?\331\213\234\277\000\000\200?\"8$\2778\020@>U\370M\276\232eS>\306\215\303>o\345\350=\213\344k?\331\213\234\277\000\000\200?\266\313G\276\327\266\210>z0\346\276ey\260\276c\254s\276\221V\232=\213\344k?\331\213\234\277\000\000\200?\274X\252\276\327\266\210>69\031\277p%\325\276\020\203\224\276\223\002\330<\213\344k?\331\213\234\277\000\000\200?O@%?\221e\261>\273\254\302=\234x\202=lc\006\277,\341=;`\027m?g/\235\277\000\000\200?\313I\213>\r\303l\277\235\226\373<D[\237\275\355U\312>X9\200;\213\344k?\365\322\235\277\000\000\200?\272K\313>:\016\007\277\334\357/>@.\214\276]\373A>\214P=<\213\344k?\021\032\237\277\000\000\200?\262\246\035?\010B\346\277\023\005s>\030c\211\273K\340\000>\"%Y=`\027m?-a\240\277\000\000\200?\010\274\206?\r\303l\277\361B\267>19)\276\021\243\305?\\\222\240=\213\344k?\021\032\237\277\000\000\200?\304\246C?\257kX\277\221\261e=d\361\336\276\306\213X\276\372\350\224=\213\344k?\021\032\237\277\000\000\200?\231`D>5\215\200\277\207\301\001\276\036\007\024\276q\202S\275\331\321\231=\266\261j?-a\240\277\000\000\200?4\231\000?A\020\237\2775(b\276\027\212\345\275\330&f>.]/<\266\261j?\237\275\237\277\000\000\200?\202~^?\344\270\212\277\317\266\260>\302\273&\276\245ZQ>\234o\277=\342~i?-a\240\277\000\000\200?\254\357\261?5\215\200\277\234\267\226>\3140\251\276\246r\261\276\030i\235=\342~i?\237\275\237\277\000\000\200?\210\353\223?5\215\200\277y=i>8S\331\2761x\213\276\320^\330=\342~i?\237\275\237\277\000\000\200?\016\367\217?5\215\200\277\366X\024?|B\034=K\216\002?0\336\313=\342~i?-a\240\277\000\000\200?\247>\312>\344\270\212\277)\3211\275\010e\307\275\354#\201?\376\370\251=\266\261j?\237\275\237\277\000\000\200?\343\1776?5\215\200\277\222\266\364<g\225v\276\263|\000=\014\374\347=\342~i?\237\275\237\277\000\000\200?\231_F?\222\344\224\277\031\241\271>`\036\245<\357\353\213\276e\230\310=\266\261j?\365\322\235\277\000\000\200?\267.\206\275\344\270\212\277\302\320Z\276d\227R\276\306d\304?;\336g\275\266\261j?\203v\236\277\000\000\200?\372\t\275>\377\276\274\276\014s\024\275J9r\276N%b=\000\312\224=\213\344k?g/\235\277\000\000\200?\262I\300\275\257kX\277c\3357\277\324 \344\275\200\366\000\2772\370\031\275\266\261j?\331\213\234\277\000\000\200?\306\275\331>5\215\200\277\246\257\002\275\352\302\223\274\267\260y?\037Q$;\266\261j?g/\235\277\000\000\200?^+\006\277ax\007\300\210\214\241=\244\214\356?\322\376\205\2776\361\017\276\266\261j?K\350\233\277\000\000\200?\245+\211\276\344\270\212\277\260\354\377\276\233\324\343\275=\316\027?/\376\225\274\342~i?\331\213\234\277\000\000\200?.O~?\r\303l\277\303\335d>\021\342\\\276\003\t\210?\004\tc=\342~i?K\350\233\277\000\000\200?\367\222\362\276\341\270\025?\254\275\000\277\345\353!\276\261\216\177\277\266UV<\213\344k?\273\004\241\277\000\000\200?\260\364\207<M\223\275\277\005\202o\276\366m\023\275\177\211\016?@M\240<\213\344k?-a\240\277\000\000\200?2~\310>\227e\033\277N\224\365<\304Sa\276\237\302(?t\254\372\274\rLh?\022Z\231\277\000\000\200?(\030y?\344\270\212\277\241\372\307>\271\007x\275\214\356\236>\375\276*<\342~i?\204\266\230\277\000\000\200?\016\031\312\275\365\274/\277\303\300\367\276y\223\251\275\214\274\023?\363\010\271\275\342~i?\240\375\231\277\000\000\200?\000o\235?8\020@>Z\005Q>\001\025p\276\357)\007\276\367k-\275\342~i?.\241\232\277\000\000\200?2\002\203?\010B\346\277\244{\311>e\241\353\275\223\355\021?J\322\276\273\342~i?\274D\233\277\000\000\200?%)\204?\222\344\224\277k\354\327=\244+\304\275I\026\275@w3\255\274\rLh?K\350\233\277\000\000\200?\266\303l?\222\344\224\277*F\364==\244\370\275\270\036\272@\251>\2779\342~i?\365\322\235\277\000\000\200?\273\371>?\360;\251\277\277\276\363\273\334\225B\276E@\343?{\005\216<\rLh?\365\322\235\277\000\000\200?^L\265?\252\352\321\277\270#\256>r\005%\276\343\026K@ya`=\rLh?\237\275\237\277\000\000\200?\000?s?\344\270\212\277\235\262s>&\003$\276\227\r2@k\220\377<\342~i?\021\032\237\277\000\000\200?R\205\226?Y\026\334\277EwM>\330\2447\276\205b\203@\214\200\364<\rLh?\203v\236\277\000\000\200?tO!\276\266m\360\277\326 \230\276/\231\272>\365\301/\277\202\351\'\275h\265^?\332\313\226\277\000\000\200?\256\004\225?\212b\002\300J\037\014\276<A\370\275\350P\243@\205\3332\275\346Mb?\237\275\237\277\000\000\200?\024\267\203>\271m\345\276\016d\250\275\275\351\007\276\220\027j?\020\360 \2748\031g?\331\213\234\277\000\000\200?\343|e?\203a\001?\3207\022:E?l\276!@\347\276%\231\214\2748\031g?\331\213\234\277\000\000\200?_1\n?8\020@>\031\255}\274l\265\346\275k\377\237?e\361\31298\031g?g/\235\277\000\000\200?s\352\336>\377\276\274\276>\365\301=2rO\276\302\264*@C\007\014\2748\031g?g/\235\277\000\000\200?$\243\225>\010B\346\277(\r\010\277\221-\253\275\212\326\276=FQ\303\2758\031g?K\350\233\277\000\000\200?X\225\231\276\023\303V\2769w\001\277c\206=\275\301\240\366;o\377\210\274d\346e?K\350\233\277\000\000\200?f\037\274>\221e\261>\345\016A\276\306>\030\276\331\202\351\276=\251\003=d\346e?\331\213\234\277\000\000\200?\237\215\343\274\377\276\274\276V\244\001\276\216\363\212\276\236ec\276\036m\217\2758\031g?K\350\233\277\000\000\200?!.\030?\257kX\277\327\001\307=\353;\005\276>d\211?\177W\n\2758\031g?.\241\232\277\000\000\200?\240\230|>\365\274/\277\277\277\242\275~U\323\275\302\205\322?\260\007!\2758\031g?.\241\232\277\000\000\200?xx\020>e\231\372\277nl\306\276P\306>>\315<#>\321\230\343\275d\346e?\204\266\230\277\000\000\200?W\334\373>A\020\237\277\202\002$\276\221\264\022\276s\306.@\323xM\2758\031g?\022Z\231\277\000\000\200?\303\366\315>8\020@>\010\027\201>\224\ru\275\230\262\306\276\302\243W\272\217\263d?\022Z\231\277\000\000\200?\253_\275\276\r\303l\277\363\263\002\277\273#\264\275\030\003\273?\257Y7\275d\346e?\022Z\231\277\000\000\200?\t\352\306\276\r\303l\277\316\027%\277\373\314\026\276z\231\335?\317\267U\275\217\263d?\240\375\231\277\000\000\200?\255\315\001\2775\215\200\277\223TH\277\037VH<\300-6@*\213w\275d\346e?.\241\232\277\000\000\200?H\222\030@\344\270\212\277SB\202? \000\324\275\331\003_?%\213\362<8\031g?ho\227\277\000\000\200?\346\034\273?\227e\033\277\311\300%?\272v4\276\\\2620@8\207\357\273d\346e?\366\022\230\277\000\000\200?\241\330\271?D\020\224\276\200%\226>\357\363\361\276J\203;\277m\230\016\275\217\263d?\332\313\226\277\000\000\200?\325%\236?\235e\005\276\270\276\030?\266\213\200\276\372\3279>\031tv\273\217\263d?ho\227\277\000\000\200?\037\272~?\221e\261>PR\027?\"\321t=\016\013\333\276O\034\034;\272\200c?ho\227\277\000\000\200?_\325\325>k\252\352<\003Hq>\345\230K<#\370\206>\256\016C\274\217\263d?\366\022\230\277\000\000\200?p\252\302?8\020@>\177\007\235>\037;\262\276^\023\242\276D\2508\275\217\263d?ho\227\277\000\000\200?\010\234\201=\222\344\224\277W\326\251\276\207>}\274\006[\224?\246rl\275\217\263d?\204\266\230\277\000\000\200?\315\374d>\271m\345\276H\324\277\276K\307\215\276\366Z\005\276\304\224:\275\272\200c?\204\266\230\277\000\000\200?\001\376\022?\240 P\275\362E\356\273o*\210\276\\\177\313=\373\035\304\274\272\200c?\204\266\230\277\000\000\200?\355\216(\277\257kX\277\013c\016\277!\342\t=\240\335\034\276^4\270\275\272\200c?\204\266\230\277\000\000\200?\245%\343>\240 P\275\341\360E\276\033m\225\275\241Y\223\275!\001\230\274\217\263d?\022Z\231\277\000\000\200?\350\373\354>\203a\001?U\227\013=\212E,\276\334\022\203\275\036\376\241<\272\200c?\022Z\231\277\000\000\200?C\034R?\023\303V\276\036\330\231>\026\002\233\276e\340\t\276O}\314;\272\200c?\022Z\231\277\000\000\200?\345\216\304>\240 P\275J^\235\275\304\266\321\275\300\332&>\311\254\014\274\272\200c?\240\375\231\277\000\000\200?\273\247.>\023\303V\276\221\353;\276\"\270\360;x\372!?M\001\336<\272\200c?\240\375\231\277\000\000\200?\331vL?\023\303V\276\340\023\016>\260\262\300\276\032\r\376\275\316\226-<\217\263d?.\241\232\277\000\000\200?\205\366\036=\257kX\277\365\0267\273;{\001\275p\322_>\216\323T\275\217\263d?.\241\232\277\000\000\200?ekD?\240 P\275?9D>g\225v\276\324\253\234>(W\017=\217\263d?.\241\232\277\000\000\200?\001\251\002?\240 P\275f\260%\275\273\023\303\276_q\220\276\365 x\275d\346e?.\241\232\277\000\000\200?\314\364-?k\252\352<.b\023=\341Q_\276\273\023\007?\351\317\021\275\217\263d?\274D\233\277\000\000\200?\216\364\014?L\024\332>eK]>\314w\250\275\357)\007\2761\273\007\275d\346e?K\350\233\277\000\000\200?fw\033>\235e\005\276I+\234\274\244\272#<\217\350\264?\236\241\036\275d\346e?\274D\233\277\000\000\200?!.\030?\327\266\210>P\376\337>\242\270\024\276\003\177\206\276\225\215\251\274\217\263d?K\350\233\277\000\000\200?Q.\204?\023\303V\276:\216\002\275\377P\370\275\035\244\001\277?\346\206\275\217\263d?\274D\233\277\000\000\200?tFw?\235e\005\276\313<t>\306K\216\276\270\215\362\276\353\335\274\274\272\200c?K\350\233\277\000\000\200?W\341\035?D\020\224\276\231\2600>:p+\276\017\336\236?%\322\257\271\272\200c?.\241\232\277\000\000\200?\245&\262>\023\303V\2765/\222>Q\245-\276\315z\236>\207\313\210\274\346Mb?\022Z\231\277\000\000\200?>\353R?D\020\224\276C\n\365>^\3422\276v\003^>{\033\301<\021\033a?\022Z\231\277\000\000\200?\250H#?\271m\345\276\321[\004=;\301\234\275\267\260y?\316\326\275\274\346Mb?\022Z\231\277\000\000\200?\370G7?\221e\261>\027\353\240\2756\020N\276\035o\222?\nnC=\346Mb?\366\022\230\277\000\000\200?q\212\221>:\016\007\277[j\001\2753L\003\276pE\312?u\354-\274\021\033a?\204\266\230\277\000\000\200?\212w8?\023\303V\276K\000\377=\313I<\276\212sQ?\220\354R<\346Mb?\204\266\230\277\000\000\200?\036d\354>\235e\005\276\356\007\n>p\2423\276\205\224\241?\002\213\030\274\272\200c?\332\313\226\277\000\000\200?\212\274\030@Y\026\334\277;Hd?Xu\343\275&F\030A}\264\262<\272\200c?K(\226\277\000\000\200?x\010E@\374\276\307\277m\333\224?t\n\202\276:*\373>\236\337\335<h\265^?\241=\224\277\000\000\200?\360Q.?M\223\275\277\0178\022\276\312\230\350\274\235\202\362?|Xz\275h\265^?K(\226\277\000\000\200?\271\217K?\271m\345\276b\277\032?\205\222\310\274\211\030\367>\014Z\025<\223\202]?K(\226\277\000\000\200?\322a\225?\023\303V\276\310\200\264=y^\322\276\035\345\220\276E\037\033;\276O\\?K(\226\277\000\000\200?\374\362\311?A\020\237\277aP*?\300b~\276\255\272\226?j\263\\=\276O\\?\275\204\225\277\000\000\200?\310M\322?:\016\007\277\325\255\343>wM\200\276T\207#@~:\014:d\346e?g/\235\277\000\000\200?\205K\014?\023\303V\276]$\307>\373\r%<k\031\033>s\366\271<d\346e?g/\235\277\000\000\200?GG\230>\271m\345\276\225O\226>k\221\t\276\363v\224<\260[\317\274d\346e?\365\322\235\277\000\000\200?\033\365\020?\023\303V\276Z\303\327=l\277~\276\032\r\376\275s<\005=\217\263d?\365\322\235\277\000\000\200?\024\004??D\020\224\276\270\007g>\"\252\365\275\354#\201?\203\242e=\217\263d?\203v\236\277\000\000\200?%\373)?\271m\345\2762Y\336\275\240c1\276\346\224R?\201\022\243\274d\346e?\203v\236\277\000\000\200?\361\nO=D\020\224\276\'\326-\276)4\003\276Z\276\261?A\366\352<\272\200c?\365\322\235\277\000\000\200?G\361\274\276\r\303l\277\035\236\014\277\016\334\210\276;\330|\277\006K\204\270<\350_?\365\322\235\277\000\000\200?\364x#?\365\274/\277w-\216>`\226@\276\200l\355?R\274\311<\217\263d?\021\032\237\277\000\000\200?\004\035\000?\203a\001?x\272\034=M\3560\276\237!@\276\344TL=\217\263d?g/\235\277\000\000\200?\245~\021>\010B\346\277m|\262\276\032\234\302\275.\204\333>4\214\374\273\217\263d?g/\235\277\000\000\200?B\277\220\275L\024\332>XeB\276\244\377\035\276\271-\262=\240\004\230<\272\200c?\365\322\235\277\000\000\200?,